<s>
[PAD]
</s>
[UNK]
[MASK]
[SEP]
[CLS]
!
"
#
$
%
&
'
(
)
*
+
,
-
.
/
0
1
2
3
4
5
6
7
8
9
:
;
<
=
>
?
@
[
\
]
^
_
`
a
b
c
d
e
f
g
h
i
j
k
l
m
n
o
p
q
r
s
t
u
v
w
x
y
z
{
|
}
~
¡
¢
£
¤
¦
§
¨
©
ª
«
¬
®
°
±
²
³
´
µ
¶
·
¸
¹
º
»
¼
½
¾
¿
×
ß
æ
ð
÷
ø
þ
đ
ı
ł
œ
ƒ
ƫ
ƭ
ƽ
ɑ
ə
ɨ
ʒ
ʲ
ʺ
ʼ
ʽ
ˆ
ˇ
ˈ
ː
˘
˚
˜
˝
ˮ
ͼ
α
β
γ
δ
ε
ζ
η
θ
ι
κ
λ
μ
ν
ξ
ο
π
ρ
ς
σ
τ
υ
φ
χ
ψ
ω
ϕ
ϲ
а
б
в
г
д
е
ж
з
и
к
л
м
н
о
п
р
с
т
у
ф
х
ц
ч
ш
щ
ъ
ы
ь
э
ю
я
ђ
є
ѕ
і
ј
љ
њ
ћ
џ
һ
ա
վ
א
ב
ג
ד
ה
ו
ח
ט
י
כ
ל
ם
מ
ן
נ
ס
ע
פ
צ
ק
ר
ש
ת
׼
،
ا
ب
ة
ت
ث
ج
ح
خ
د
ذ
ر
ز
س
ش
ص
ض
ط
ظ
ع
غ
ـ
ف
ق
ك
ل
م
ن
ه
و
ى
ي
پ
چ
ک
گ
ی
क
त
न
प
म
य
र
ल
व
स
ा
ि
ी
ক
ন
ব
য
র
া
ি
ে
க
ட
த
ப
ா
ி
ு
ก
ข
ค
ง
จ
ช
ด
ต
ท
น
บ
ป
พ
ม
ย
ร
ล
ว
ส
ห
อ
ะ
า
ำ
เ
แ
โ
ใ
ไ
ა
ი
ᄀ
ᄂ
ᄃ
ᄅ
ᄆ
ᄇ
ᄉ
ᄋ
ᄌ
ᄎ
ᄏ
ᄐ
ᄑ
ᄒ
ᅡ
ᅢ
ᅣ
ᅥ
ᅦ
ᅧ
ᅩ
ᅪ
ᅬ
ᅭ
ᅮ
ᅯ
ᅳ
ᅴ
ᅵ
ᆨ
ᆫ
ᆯ
ᆷ
ᆸ
ᆻ
ᆼ
ᕮ
ᗩ
‐
‑
‒
–
—
―
‖
‘
’
‚
“
”
„
‟
†
‡
•
…
‰
′
″
‹
›
⁄
⁰
€
℃
№
™
←
↑
→
↓
↩
⇒
∆
∈
−
∙
√
∞
≈
≤
≥
⋅
⋆
─
│
┌
┐
└
┘
├
┤
┬
┴
┼
█
■
□
▪
▬
▲
▸
►
◆
◊
○
●
★
☆
☎
☑
☺
♂
♠
♢
♣
♥
♦
⚽
✓
✔
❑
❤
➡
⠀
⦁
、
。
「
」
【
】
あ
い
う
え
お
か
き
く
け
こ
さ
し
す
せ
そ
た
ち
っ
つ
て
と
な
に
の
は
ま
み
め
も
や
よ
ら
り
る
れ
わ
を
ん
ア
ィ
イ
ウ
ェ
エ
オ
カ
キ
ク
ケ
コ
サ
シ
ス
セ
タ
チ
ッ
ツ
テ
ト
ナ
ニ
ネ
ハ
ヒ
フ
ヘ
ホ
マ
ミ
ム
メ
ャ
ュ
ョ
ラ
リ
ル
レ
ロ
ン
ヶ
・
ー
一
万
三
上
下
不
与
专
世
业
东
两
个
中
为
主
么
之
乐
九
也
买
了
争
事
二
于
五
亚
交
产
京
人
什
今
他
代
以
们
件
任
会
传
伦
位
体
何
作
你
使
供
保
信
值
做
元
先
光
免
入
全
八
公
六
关
其
具
内
册
准
出
分
划
创
利
到
制
前
力
加
务
动
助
势
動
包
化
北
区
十
华
单
南
博
历
原
县
及
友
双
发
取
口
可
台
史
号
司
各
合
吉
同
名
后
吗
吧
员
和
品
哪
商
器
四
回
国
图
在
地
场
址
坛
城
基
場
士
外
多
大
天
太
头
奖
女
好
如
姐
娱
婆
子
字
学
安
官
定
宝
实
客
室
家
富
对
将
小
少
就
尾
局
展
山
岳
島
川
州
工
巧
市
师
常
平
年
广
庆
库
店
度
建
开
式
强
当
录
彩
影
律
得
微
心
必
快
怎
思
性
总
情
想
意
感
戏
成
我
户
房
所
手
打
技
投
报
持
挂
接
推
提
播
改
放
政
教
数
文
料
新
方
无
日
时
明
易
星
是
時
更
最
月
有
服
期
本
术
机
杀
来
林
果
查
校
样
格
業
機
次
正
比
民
气
気
水
求
江
没
河
法
波
注
活
流
测
海
清
港
游
湖
澳
点
然
爱
片
版
牌
物
特
狗
玄
王
玩
现
球
理
生
用
田
电
男
画
界
登
白
百
的
目
直
相
省
看
県
真
着
知
石
码
研
破
示
社
神
票
福
秀
科
程
究
空
立
站
第
等
算
管
精
系
網
红
级
线
组
经
结
统
网
美
群
老
考
者
而
聊
联
肖
育
能
自
色
花
行
表
被
装
西
要
見
視
规
视
解
話
计
认
记
论
设
证
话
说
请
财
费
资
赌
赛
赢
走
起
足
跑
路
身
车
软
载
过
运
还
这
进
送
选
通
道
那
部
都
里
重
量
金
钱
长
間
门
间
际
限
院
集
電
霸
靠
面
音
頻
预
领
频
香
马
高
黄
黑
龙
ﬁ
ﬂ
！
（
）
，
：
？
👍
😀
😁
😂
😃
😄
😆
😉
😊
😍
😎
😘
😛
😦
🙁
🙂
🙄
🤗
##r
##e
##d
##m
##i
##n
##t
##s
##p
##l
##о
##б
##ы
##т
##и
##е
##u
##c
##a
##o
##x
##v
##j
##g
##f
##z
##2
##h
##y
##k
##b
##5
##7
##9
##0
##1
##8
##4
##リ
##ー
##ナ
##6
##д
##н
##ч
##с
##в
##м
##¬
##λ
##ق
##ا
##ل
##ت
##3
##׼
##ф
##α
##ξ
##ι
##μ
##ο
##υ
##w
##q
##ᅮ
##ᆫ
##ᄌ
##ᅡ
##ᄋ
##ᅧ
##ᆯ
##ᅳ
##р
##л
##ь
##│
##ц
##ي
##ک
##ن
##د
##€
##œ
##¼
##ك
##ـ
##م
##و
##ی
##س
##®
##φ
##ε
##ρ
##ω
##º
##😂
##к
##´
##г
##а
##я
##ß
##δ
##÷
##×
##þ
##у
##п
##ю
##カ
##ッ
##フ
##ン
##ク
##ᄀ
##ᄅ
##х
##ς
##פ
##י
##ל
##з
##ス
##ı
##ѕ
##מ
##ה
##ャ
##ヘ
##γ
##π
##ν
##¢
##¸
##か
##み
##ち
##❤
##џ
##ᅵ
##ᆻ
##ᄂ
##ᅩ
##る
##は
##す
##た
##っ
##こ
##の
##і
##ш
##ј
##ذ
##ب
##ر
##ج
##ˮ
##²
##ᄒ
##ᅪ
##ᄎ
##ᅦ
##ᆨ
##ᆼ
##σ
##ه
##ł
##ƒ
##ж
##щ
##ط
##う
##て
##ด
##ช
##น
##ใ
##£
##ص
##⁰
##ラ
##ウ
##ﬂ
##η
##θ
##β
##ა
##ი
##も
##ら
##え
##れ
##し
##い
##ɑ
##đ
##─
##┬
##┘
##└
##┐
##→
##һ
##א
##ת
##ם
##є
##ف
##غ
##ة
##κ
##τ
##ƽ
##ض
##ס
##ו
##נ
##™
##ع
##ى
##ъ
##ホ
##ト
##ᅭ
##˝
##¦
##ͼ
##æ
##ᅥ
##ᆸ
##ᄃ
##ᅬ
##ᅣ
##★
##▪
##タ
##サ
##ハ
##イ
##ル
##ב
##ز
##ᆷ
##µ
##ש
##כ
##©
##ร
##ะ
##ต
##บ
##า
##เ
##ล
##อ
##や
##わ
##り
##ん
##ア
##ミ
##ュ
##メ
##と
##ま
##ə
##レ
##ケ
##エ
##χ
##ロ
##つ
##վ
##👍
##ד
##テ
##ィ
##ย
##แ
##ส
##¨
##خ
##ม
##ƭ
##¤
##ᅢ
##ᄉ
##°
##گ
##া
##য
##র
##┴
##ː
##ʼ
##ा
##म
##ी
##ᅴ
##ק
##ث
##ニ
##な
##け
##チ
##マ
##ա
##ח
##צ
##ђ
##ø
##ˈ
##シ
##ก
##ท
##ง
##ำ
##ش
##ϲ
##ע
##ר
##ג
##ح
##ʽ
##コ
##ツ
##ћ
##ﬁ
##あ
##ェ
##ค
##ᄆ
##ᄑ
##ᄇ
##├
##┼
##┤
##😁
##โ
##ʺ
##め
##ƫ
##स
##く
##र
##ि
##व
##ल
##お
##に
##よ
##ן
##ð
##њ
##き
##ว
##ヒ
##ᄏ
##ョ
##ক
##ে
##☎
##ா
##ு
##க
##ψ
##↓
##さ
##■
##オ
##จ
##ห
##ข
##ป
##พ
##ি
##±
##┌
##э
##●
##ন
##ட
##ி
##½
##ʲ
##⁄
##त
##😀
##►
##😍
##پ
##˜
##ˆ
##◊
##ไ
##ζ
##せ
##چ
##😊
##♥
##を
##ª
##◆
##😉
##³
##😎
##¹
##ظ
##😘
##😄
##😃
##😆
##☺
##🙂
##🤗
##🙄
##😛
##ヶ
##ム
##ᄐ
##№
##セ
##キ
##न
##−
##˘
##そ
##ɨ
##क
##♦
##य
##˚
##≥
##ʒ
##ט
##≤
##¾
##ᅯ
##≈
##℃
##த
##ப
##ネ
##✔
##ব
##ˇ
##∙
##□
##प
##⠀
##∈
##○
##∞
##љ
##♣
##⋅
##█
##⦁
##➡
##√
##↑
##✓
##♂
##▲
##☆
##♠
##∆
##⇒
##ϕ
##😦
##☑
##←
##▸
##🙁
##▬
##↩
##⚽
##⋆
##ᕮ
##❑
##ᗩ
##re
##at
##ri
##nt
de
##ul
##st
in
##in
##le
##ra
ca
##or
si
##it
##an
##ic
pe
##ar
##ie
##ea
##on
sa
##un
##ce
##are
##ti
##al
##te
##ru
la
##ui
cu
##me
##ste
##ro
##ii
##ate
un
se
ma
ce
co
##de
##ut
##il
##nte
re
din
##ata
care
##ca
##ia
nu
##ului
##ntru
##se
##ol
##mp
pentru
su
##si
##ve
##uri
##ta
##ati
##pe
pro
##ma
##nta
mai
pri
##sa
##ci
##ct
al
##rea
##sc
##lor
##ori
po
con
##la
##ine
fa
este
ac
##sta
##za
pre
##oc
##fe
di
##ni
##om
au
ace
fo
##area
##um
me
##pa
##ne
fi
int
ne
##va
te
va
##ica
##ur
st
##hi
##ici
##ge
##du
##oa
ar
ex
##ze
##di
##da
am
le
do
to
##ura
##sti
an
##sp
##li
sp
mo
##rii
pa
20
fost
ve
par
##rie
sau
ap
##ana
##and
##uc
sc
##mb
inte
ra
no
##ite
##ala
##ile
##ice
tre
##ga
##ina
##atii
mul
da
imp
##zi
##us
##une
##mi
##ua
##cti
##ment
vi
sunt
##rs
##pt
##iei
##he
##ita
##ilor
ti
##bil
rom
acest
##ran
fe
##oare
##os
##ane
prin
du
ale
##vi
##rat
ta
mi
##na
##lu
pu
cre
li
##gi
##cat
##nti
dar
##rm
at
##ini
201
##atea
##ani
##iti
cont
##og
##eaza
##ind
loc
##nd
##be
inc
##rul
##ona
##orm
ad
##ot
##fic
vor
eu
roman
comp
##lic
fie
av
##ali
lui
daca
##ba
##mul
ba
dupa
cat
##ort
##men
##una
tot
ge
##itate
af
pl
or
##urile
iar
##bu
ince
##ntre
##atori
##orul
ob
acea
##oi
pers
ga
fac
ani
ci
ori
cand
##rit
intre
luc
cum
poate
com
aceasta
cel
put
cele
inter
mult
##rile
as
inf
timp
spe
##arte
##sul
##tii
ul
##sca
tra
ni
##uta
##stru
##zat
aj
pot
ec
##itatea
##ing
ju
##uni
intr
##ria
ai
##cte
##spre
are
chi
##00
mare
face
ur
##stit
ele
rea
acti
##oane
lu
##onal
aut
##ult
mar
despre
##ili
##rt
##ntele
##pre
euro
##ora
19
sub
tran
une
##ric
pol
nici
##ure
cop
bi
pub
##stra
##od
##ute
zi
cal
##dit
##fa
trebu
dintre
era
##vit
buc
##arat
##tul
##zit
toate
##dic
##meni
el
trebuie
produ
pana
##pta
foarte
asa
##pi
##rilor
ora
doar
##care
noi
##gra
##ver
apro
be
leg
doua
fun
asta
prop
ast
cea
##ov
##scu
##ord
##spe
##atia
sti
pla
##rv
##ces
ei
##fel
fata
dum
pute
unui
##op
romania
org
rec
bine
sex
##feri
ro
oa
##iile
##one
##arul
part
##mele
##rc
multe
desc
san
cate
cei
##bi
##atul
dep
urm
fara
caz
so
##unea
parte
sta
##orta
car
##atie
pie
dec
##lul
ii
##nit
jude
##sm
nati
preze
na
aceste
##up
##uti
##mente
chiar
##olo
##urilor
exi
conf
##mis
##vol
ab
dez
mu
##lo
avea
##rept
lucru
prima
il
proie
##ai
##tele
mas
art
organi
##ator
vre
lor
gra
acum
mun
##olog
##dea
exp
##ntul
cons
speci
por
incep
noa
catre
pi
unei
##mn
200
##rioa
##tu
##duce
unde
sol
cad
astfel
sup
##rum
priv
##onale
urma
drept
##atura
asi
uni
##vo
gene
##veni
cap
##mentul
##unci
polit
mari
viata
peste
lum
mini
ade
fiind
inv
atunci
##liz
disp
pat
uti
##sit
data
contin
cun
sec
10
##dul
##ja
##itati
prim
exe
ie
##orit
ri
alte
ajun
##rin
tine
vede
##do
##orma
##oni
gre
zile
##bile
apa
inca
fapt
##cut
fil
##easca
op
gu
stra
insa
##no
dom
##pte
anul
fiecare
ase
public
##ntii
##je
isi
deci
serv
cla
copii
persoane
##pul
##tin
per
inform
##ctie
dire
putea
sf
dra
oc
##orii
##mbrie
##gura
facut
##ud
fin
alt
##mai
anu
##lica
##im
##rate
##use
decat
##fect
repre
min
##ble
val
ban
##mil
europe
num
##stin
ceea
##atoare
##iale
##ole
##uit
##alul
nr
perioa
##stul
atat
##cum
reg
comun
##rica
##raf
ave
##rg
ins
##tate
##onala
pun
rez
stat
ho
echi
med
##dent
##sedi
bar
##neze
proiect
cer
##cta
schi
##vers
##rim
##lie
bun
##che
scri
##ntei
importa
acesta
avut
exista
##ub
##nul
##ope
cadrul
##ntat
##nic
##cul
##lea
dumneze
contra
soc
intal
ofe
privind
##gu
lan
trans
man
des
##tre
schimb
perioada
##eam
ia
mode
mon
pra
ulti
bucure
putin
##rati
unul
##scut
siste
form
##rare
unor
bu
##mo
##ula
ch
##fica
sing
##loc
##res
##ctia
progra
##art
situ
trei
proble
##ozit
multi
on
profe
aici
of
dezvol
decl
##oara
fot
mod
2018
nevo
respe
feme
##rului
inceput
comple
##zare
spune
ea
##sibil
adev
celor
lun
##atele
##rata
orice
act
presedi
cor
##ron
spre
rep
nive
18
precum
15
##itatii
##spun
desi
us
che
dumnezeu
bucuresti
intele
##cur
ame
ru
consta
fol
inai
inve
##ral
inde
inta
##icol
sen
parti
##stre
tele
prote
##man
guver
ist
pari
12
afa
mate
##ore
cole
##gat
sim
##orului
potri
##reaza
partici
fel
##sele
tara
##aturi
cine
sca
##upra
ceva
##menea
##ativ
lei
adm
regi
ate
##uza
numai
cent
cuno
##onom
##atiile
joc
mol
##lat
##rist
##bui
##hn
##ete
mana
##mat
asemenea
expe
##arta
##line
##ctiv
##zarea
##icii
cult
##rarea
##oase
##mag
mili
11
famil
var
ope
##ke
ide
camp
proce
##val
simp
libe
frum
om
istori
apoi
met
buna
lo
##ule
aceea
cred
dat
impre
eveni
una
mic
00
sar
##atate
##ghe
nou
prea
direct
##cea
##atilor
constru
consi
##stri
imi
conce
##ania
##tia
princi
##bila
##nati
##stii
##iet
afla
cateva
instit
##oasa
acce
come
folos
et
ind
gru
##anda
econom
##sat
bise
imb
timpul
functi
##lin
##fere
##ha
##anu
oameni
##ograf
admini
moldo
##strat
ha
copil
tur
##atorii
asupra
sur
30
cazul
##chi
primul
##nea
tri
neg
##iere
bo
deschi
mine
##cu
ales
drag
oamen
repreze
acestui
acestea
spus
vo
site
stu
intalni
raspun
ada
clu
##ch
pen
##rij
romane
##onat
##zia
pove
##ond
imag
##lui
partea
cul
creste
medic
##usi
core
##ape
can
vin
##oarea
##bat
cit
##ual
jur
baza
mil
vide
faptul
inainte
conside
000
plan
trebui
utiliz
inclu
ing
##prin
##tine
condit
prezent
##nului
##odata
##mant
ag
##tra
##ctul
##diul
univers
iti
cara
voi
##fle
sala
elect
nevoie
echipa
##iilor
##sului
sal
##andu
acord
##ptam
aca
declarat
moti
activ
##diu
indi
aplic
##zut
pare
aproape
cere
romaniei
alta
memb
##mic
edit
##oli
luni
ord
sea
##tului
nume
rel
potrivit
##tare
14
##po
##siv
trecut
for
toti
##onul
obie
dece
ajut
tehn
acela
cri
tip
noua
dem
neces
intamp
modi
##co
local
venit
##ficie
##min
doi
mart
##zate
##oci
##lice
16
zona
posibil
ore
##unii
##dere
13
dan
rezult
mea
alege
soci
##ntr
vine
##rn
inchi
internati
pier
sco
##gur
sale
##urii
sunte
ple
ter
natura
casa
avem
desfa
##atiei
2017
ene
privi
perm
ste
transp
conform
casti
prof
tar
##car
##vin
efect
ae
national
aste
##bo
folo
post
asigura
astazi
dori
munca
edu
##rior
##zeaza
##bit
##urt
##ocu
para
##ict
cultura
rand
##nii
acolo
special
limb
ver
articol
vrea
17
##xi
##zinta
sfa
stii
##ziti
##otri
##oana
semn
##ss
resp
poti
lip
##olul
desfas
##utie
auto
noastra
##lig
##port
online
##zie
toata
cerce
adu
##tarea
apar
##atului
came
domeni
##fi
iu
##tit
personal
tu
viit
##xe
##oaste
bene
contro
vie
ape
maj
anga
##orilor
priete
cauza
cump
exa
continu
lumea
##ntie
porno
consili
locul
za
ze
vol
supe
and
vedere
##rge
##mei
##bili
##oria
eli
he
ali
##otriva
docu
age
grat
arata
25
rece
##ila
##jul
pract
compan
lucra
##ose
luna
activit
##nu
inal
impreuna
nostru
exce
##uale
piata
bra
##ard
meu
##stat
noastre
##inci
##inea
is
milioane
##forma
deja
pune
exemp
##resa
##derea
nivel
##brie
produse
oamenii
##rand
autorit
popul
saptam
date
reali
pac
##mentului
##ativa
##ntilor
vom
##mine
##oam
aface
fra
proprie
stiu
##ntia
##regi
afi
gand
2016
realiz
tru
iul
lume
moldova
##tal
##zii
asoci
lin
ziua
ajuns
##xim
nimic
##ferite
##mului
##──
##ok
##unile
informatii
fl
ami
rus
esti
condu
##atile
##mentele
inregi
asc
##ola
scop
##zica
faca
##zata
##lab
ram
publice
forma
##arului
raz
langa
general
acelasi
##lele
pag
we
tin
constit
##ntelor
##rei
ofici
arti
io
video
##uie
##riu
conte
bune
sufle
scris
##ctura
conc
##gh
caracte
##gul
curs
##ctor
pret
##lei
nea
##urat
cart
##siune
tit
princip
presedintele
dese
##stea
partene
servicii
hi
capit
##ctive
constanta
fina
judete
munici
ministe
ant
erau
##stic
comis
##stine
199
##en
##roa
##cii
invata
impotriva
societ
##met
the
caut
moment
##atorul
ajuta
##menta
suc
angaj
##orie
profes
incer
descope
##ative
port
##mea
ofera
fond
usor
##ret
servici
spun
cur
##venit
mie
##cia
grup
##melor
parla
##rala
bl
vorba
numele
comunic
##ntului
term
spi
##stenta
solic
##siunea
ev
##sei
limba
##denta
germ
real
tut
##ote
24
puteti
experie
van
prem
sanat
100
##seste
petre
##dinta
prezenta
##fera
viz
repe
dore
disc
##orti
bani
conta
mici
bat
oct
dev
totul
pus
21
reprezenta
printre
##utul
ja
persoana
##data
preci
##ter
ps
##pat
legi
cite
acasa
##rita
profesi
recom
##mentare
uri
##of
##ficarea
telef
reus
col
important
suntem
dia
poe
proba
##arsit
cra
mij
barb
anum
##ram
numarul
initi
juc
##eamna
##tei
participa
acces
##ctii
transport
ghe
termen
hota
##atiilor
2015
##rma
preve
inseamna
nationale
##xa
luat
##tat
ati
##arca
abs
##riei
sigura
##ier
##ntare
##fice
##oneaza
##anci
plus
buge
noie
unele
recun
adau
noiembrie
incepe
sem
organizat
en
patru
cetate
fran
repub
energ
clie
oblig
masa
22
circ
##atat
dete
gri
incat
##cin
##ren
##sesc
singur
conduce
sfi
lim
acestei
plat
raport
motiv
datori
romani
varsta
tari
##anul
##oarece
putem
americ
##bal
vazut
fur
jos
avand
alaturi
um
cas
##mas
sus
lite
##ros
etc
deoarece
pop
europene
niste
2014
reprezinta
##rut
##unie
spati
##dem
adevar
consum
punct
##ctele
anului
inche
lea
fii
vot
speciali
diferite
anali
biserica
capa
ata
prom
continua
domeniul
##rale
##ombrie
drum
ridic
decembrie
##ho
interne
octombrie
##is
##veste
cuvi
educat
##die
supra
opti
50
##tel
trece
##rele
##itatile
mama
scoala
cunoaste
septe
insc
turi
##ande
nationala
investit
incre
antre
sustin
sef
privire
obse
legea
oferi
##atorilor
primit
lege
problema
categ
pasa
septembrie
momentul
administrat
conse
concur
vechi
atra
def
preg
ref
##oastra
cluj
place
razb
##genta
##uala
sfarsit
##smul
fotograf
sce
go
##ctiva
iunie
23
indu
##dio
ser
sustine
tau
nivelul
calitate
exemplu
##uror
cl
mani
meci
mesa
tuturor
domnul
ian
mat
greu
insta
masura
sprij
##gust
##pl
ros
nor
##ntea
comb
alba
##ptat
presedinte
intrea
##ume
urmare
stud
##urit
adica
##mpe
ret
civ
propune
##unat
##cale
##ferit
vei
dos
scrie
##strul
##ribu
##und
##itare
##nis
instru
interes
vict
stabil
ajunge
afara
##dica
intra
dea
aduce
adevarat
politica
municipi
anti
eta
tex
##lal
romana
aspe
minute
rapi
##ris
functie
dintr
menti
##dele
seara
bal
doam
fre
##ven
urmatoare
implic
cuva
pet
efectu
##itul
destin
##ck
##go
utili
preva
##telor
centrul
##diat
copiii
probleme
totusi
confi
evi
ului
##el
##gaz
trata
##ntarea
benefic
##ins
siguranta
##riile
diver
respectiv
deose
2013
##ierea
ina
martie
##inat
dreptul
proces
##pti
infra
corp
juri
extre
masina
##inge
inse
spirit
niciodata
##inul
experienta
judetul
destul
bog
##gn
ultima
iz
ruga
alex
##ilea
##bru
timis
##itor
##icul
##rop
##riale
ment
stru
cli
##itat
europa
alin
psd
probabil
rezi
iulie
publica
scol
acci
intelege
femei
festi
acestora
##ara
schimba
carti
##onare
cuprin
dispozit
modul
folosi
inclusiv
muzica
##utii
lice
fru
orig
ramane
politi
##ologie
norm
ese
bol
medica
unii
sistemul
simplu
singura
##lue
azi
alb
##rici
##smului
acope
grad
mot
##onarea
extra
prel
presa
##itar
##stica
mih
aceeasi
august
lucruri
avi
sport
apri
reduce
dumnea
oca
tale
anunt
gi
##stie
ion
##ban
pur
dus
reusit
##dat
##unde
##sea
iubi
trec
gal
vedea
obtin
program
##pen
jum
locale
afl
lasa
##ficat
flori
achi
absol
psi
legatura
dure
ante
calcul
proiectul
majorit
##vent
vizi
intreaga
furni
incal
specta
##ital
pas
27
##cata
cunosc
28
legii
cinci
faci
efe
saptamana
film
pal
lit
##ristos
##ima
##der
sin
mere
departe
##utia
##inile
obtine
teat
26
revi
##oz
pici
subie
foc
##gii
razboi
2012
cod
carte
cam
stie
oficial
terit
toc
##uarie
manage
ianuarie
respon
##bor
articolul
intampla
##arie
##voastra
eficie
consul
##fici
##selor
conditiile
tan
intro
afaceri
arm
media
cineva
res
##urata
##zele
crea
40
importanta
dumneavoastra
veti
##scul
pic
altfel
consiliului
modifica
sele
judecat
aprilie
gasi
##ung
exc
##vizi
prevede
vreme
aproxim
vietii
##diti
produs
regula
ol
devenit
vorbe
ara
bib
##osi
##inii
intalniri
ofer
veri
disponi
elev
##oarele
raspuns
ten
##dia
strada
total
##fecti
promov
##ficare
caru
mondi
aveti
nimeni
clasa
epi
dv
##eau
lua
nec
ero
judetean
simt
gara
pozit
datorita
##mii
##tic
incepand
tat
contract
invit
fier
##ratie
aproximativ
politic
mica
merge
##hii
ramas
##sh
##spi
financi
mag
marea
jurul
##siuni
##gal
campi
##itud
##cati
vezi
iub
omul
sistem
exerc
multa
activitatea
##uia
control
legis
ort
priveste
jocuri
##itori
echipe
responsa
international
magaz
premi
##num
gol
zone
valoare
mihai
##dura
caci
proiecte
##ova
rau
##ns
situatia
club
acestor
amp
lumina
eval
domnului
camera
##ntin
##deauna
sanatate
nord
##unilor
ioan
succes
drago
##tari
cant
dis
seama
urgenta
cauta
ime
biro
manife
bloc
sect
mereu
##iat
odata
##inica
ajutorul
lic
dimine
reze
pamant
european
rezol
##ierul
mand
##barea
europeana
trai
sarb
numar
acestia
telefon
compe
##cam
aiba
##run
locuri
teren
##stal
acestuia
indep
##lia
tv
##odo
gaz
alexand
##mentelor
urmeaza
fund
##sara
##bilitate
##zarii
gratuit
29
candi
ine
eveniment
programul
##denti
sine
evol
primele
permite
31
iasi
sez
pagina
ulte
##uali
frumos
primi
final
ef
lucrurile
psih
moder
justit
dezvoltarea
complet
cale
duce
lupta
stan
nicol
sla
ue
##rioare
varia
importante
##icei
parcur
##iaza
adresa
##arde
sat
chel
##ferinta
ministerul
lista
##zati
##ft
2011
capac
aflat
##male
familie
##rian
hotel
sociale
citeste
##stice
istorie
##viu
extrem
hristos
##rice
gasit
arh
##rva
determ
cau
dezvoltare
guvern
##onate
anuntat
orasului
fete
colab
stand
astea
ww
guvernului
apre
##onali
social
cost
aplica
je
identi
oras
mele
materi
foto
stare
dvs
##nilor
apare
emi
##ans
caro
##icti
intru
scopul
detal
jumatate
duminica
##indu
copiilor
##reapta
continuare
realizat
scena
agric
dimineata
naste
jurn
blog
##ziu
prov
fir
nicola
macar
febru
pres
cali
recuno
porn
cru
##scop
statului
##stilor
facem
##zul
##ki
trim
cladi
prevaz
tarii
samb
mit
explic
ado
valori
exact
##book
meto
dove
##ue
februarie
##ws
##uma
comuni
##var
##itoare
indust
resta
dru
coa
www
##ou
arta
zis
propriet
iata
ingrij
vad
ghi
pregat
lipsa
##ptie
altii
muze
aprop
cunoscut
fiz
indivi
##las
inima
teritori
pierd
baie
##vanta
gheor
tehnolog
vara
##otul
filme
lar
scurt
##atorie
las
putut
sporti
marti
printr
dau
depa
interme
barbat
##usa
jo
plata
##atelor
libert
mii
conditii
##carea
spectac
consil
crit
intreba
partid
##sce
fab
sai
##tarii
defin
pacie
##urie
198
##ps
pan
##ferent
deput
sens
obicei
inceputul
democ
strate
publicat
intalnire
##pres
necesare
##gen
##su
serie
dedic
prime
tocmai
##oaca
intere
peric
##rl
##han
vederea
vaca
persoanele
##bra
biseric
##onia
##umul
fu
mediu
anumite
sud
influe
indic
inchis
2010
##upe
desfasura
respect
ocup
##inele
##cina
mijloc
##ratii
##bele
nicolae
proiectului
activitati
lans
emo
##sov
comuna
sm
considera
vreau
duh
vineri
stati
femeie
orasul
inspe
execut
lide
##giu
##oar
exte
multum
it
##form
web
##────
contine
##oace
noul
senti
pregati
sambata
sange
supli
vreo
slu
rem
urmatoarele
brit
negru
##zator
##bate
exclu
suspe
##ka
acel
imediat
ministrul
pere
doilea
##lului
##dar
legisl
##dare
urmat
autom
familia
elibe
timisoara
ultimul
super
##anie
##to
spec
##orda
imple
salari
performa
folosit
##itele
##nice
organiz
##sina
##atra
aer
doresc
invat
stran
##zari
diverse
difere
##cra
povesti
majoritatea
gas
##otdeauna
producat
facebook
stri
transm
guvernul
##par
##roase
scur
fal
amb
zilei
sfarsitul
consiliul
zilele
##orare
convin
interesa
##ratia
nostri
solicita
##neste
vorbi
contribu
instal
##rci
##rnic
distri
##unda
gheorghe
cresterea
lini
##dei
##strati
recomand
dr
impa
tatal
suma
##vei
hot
practica
contact
##andi
istoria
vizit
sua
facult
cone
ortodo
demon
dimen
observ
putern
##icole
anii
##itorul
net
trat
autori
renu
##arti
top
vla
##rarii
500
bur
cunosti
rapid
geor
posibilitatea
##raj
lemn
fro
mem
evalu
rege
motive
60
uneori
compania
##nei
supraf
##iel
concurs
oare
sigur
lumii
fisc
##rioara
##rina
##fer
rol
##ratura
internet
##nele
##sile
operati
##uite
afect
##eaua
tarziu
materiale
suprafata
##for
document
nascut
mierc
##onului
##ster
discut
castig
anal
obis
romanesti
2009
puncte
nep
accident
permane
explo
pretul
##ntata
ulei
cartea
acu
mor
viitor
integra
france
##ire
niciun
energie
##oti
locui
drumul
recomanda
##zeze
comenta
km
tul
dob
##mantul
liber
crestere
im
liv
risc
##zei
cuvinte
intrat
far
efort
instituti
valoarea
vrei
##puri
interpre
imo
##nie
##gale
bul
municipiului
tare
revol
competit
joi
astept
peri
activitate
ital
altele
vite
adus
##diului
##iera
infii
##ceava
##mina
chisina
uita
##van
suficie
cheltu
manasti
##zand
persona
banii
felul
practic
stef
##stanta
brasov
bru
suceava
poveste
iesi
##nia
##uirea
##irea
##sii
tineri
vremea
datele
credinta
indepen
existe
##ntu
republica
redu
xx
resur
trea
celui
clar
parteneri
particip
glo
republic
dreapta
indiferent
traie
mondial
intotdeauna
2008
strateg
##inde
##anii
##ieri
cure
sase
poarta
idea
arun
descoperi
exec
##poca
35
putere
distru
##tt
curt
cab
gen
##ctiei
194
bisericii
procesul
##uda
aminte
intermediul
poziti
##orarea
detin
oamenilor
##bilitatea
romanesc
##ph
past
ochii
tera
##itatilor
referit
durata
impe
principal
decizia
##vel
est
##we
sara
anunturi
em
##ures
##20
serviciu
maxim
comanda
purt
zic
deschis
bucura
citit
tempe
bibli
##gerea
sluj
##gle
detalii
miercuri
maria
##upa
ran
munte
puterea
refu
##inal
##utiei
##ologice
##nific
##nl
comune
stabili
##olari
sfantul
anume
deza
autoritatile
omului
castigat
pierdut
saptamani
randul
dina
veni
contex
clas
bile
simb
##cand
parca
produce
datelor
abia
locuit
unite
curtea
prezinta
zil
primaria
##guri
ideea
regul
model
festival
##roi
anunta
##tice
prezentat
sunteti
##lini
misc
totodata
##lalte
membru
deb
afirm
traditi
grija
politice
circul
conda
ana
salv
retra
infracti
invatamant
merg
##gere
fostul
fierbi
gale
alexandru
nicio
candid
trafic
spital
imbunat
##orat
dor
incerc
sibi
deveni
greut
ieri
spera
##cer
persoanelor
studii
##ton
sistemului
vrem
##jele
juca
perfect
bus
##itarea
##ierii
legate
marg
intreb
compete
dific
metri
vice
sursa
noapte
adole
prevazute
plac
tradit
stiri
adolesce
feric
punctul
devine
pasi
aparut
frumoasa
45
lac
copilul
eram
fri
chisinau
imagini
simti
sediul
##cip
germania
puternic
extin
personale
inloc
##lam
societatii
acesteia
##les
kil
##ntate
har
necesar
inregistra
##rana
seri
aparat
internationale
strain
proa
decis
##lici
surprin
constantin
scu
mers
videoc
gar
rugaci
##olului
restaura
inspi
##pri
##stata
asociatia
corect
speciale
barbati
##ntial
crede
##oziti
ajung
vinde
comerci
##icule
neam
produsele
pil
##itara
expozit
coord
##mnat
semnific
ech
##tica
##omet
##alizare
secti
##vine
##atorului
##ficate
ocupa
actiune
bucata
inscrie
urmari
intor
discu
vina
##can
situatii
director
##stei
formul
copilului
participat
pote
roc
repede
ochi
##sesti
##inei
evenimente
presup
apel
frec
academ
ucra
##uita
adauga
vasile
statul
rusia
cana
ocazia
gro
lucrari
les
##onata
mal
petrece
incar
denum
lucrat
pict
ident
##dente
corespun
##oarce
##ry
##minte
trimite
up
individu
securi
sedinta
ordona
stil
ameste
stiinti
suport
tema
aprobarea
inteles
frumoase
normal
vis
secret
pierde
gay
fotbal
secre
ras
jurnali
##vara
iarna
dub
fact
##dact
evident
compone
parintii
victi
apropi
bibliote
##atis
2007
creat
editie
alti
##gre
articole
indra
ajutor
##nica
videocli
placut
##rar
regle
universitatea
romaneasca
imbunatati
rolul
bla
muz
##gno
atentie
##mos
soare
vizita
politistii
##cau
naturale
masuri
ultimii
analiza
atentia
orie
##stian
romanii
povestea
##icle
functia
##duri
lungi
crescut
sufletul
##ost
zice
vale
modificarea
interve
obiectiv
fav
##parat
sociala
lung
##inare
##nesc
avanta
aminti
george
rezultate
ultimele
mobil
##cate
lat
star
##uire
exter
##oneze
vorb
mediul
##ieni
##dice
certi
viole
murit
forta
hid
operat
mentine
antren
die
caracter
faceti
societatea
jap
iube
electron
asigur
opt
primarul
##riul
stefan
##alt
80
cultural
comporta
craci
comisia
obiective
##ons
calea
bran
cumparat
##garia
##iciile
bot
culoare
##vale
poze
plecat
##viz
centru
comisiei
##site
inalta
declar
197
ministerului
procedura
incercat
lasat
##ptea
engle
multume
pacat
teme
completa
colegi
gura
emoti
incon
##har
curat
spatiu
cazuri
##lus
##iche
tro
trib
statele
rai
log
inci
joaca
##ntari
##ulta
material
##ilal
pacate
prece
utilizarea
##ket
vita
format
90
american
##valul
##ly
plin
##mit
temp
etapa
##alog
volu
andrei
marii
##lara
carie
intreprin
umb
provoc
obtinut
acele
lansat
starea
##ritate
calitatea
doamna
numit
achiziti
gesti
cursul
##sie
gandi
banca
firma
nece
spunea
actiuni
familiei
ulterior
excele
cuvant
stim
fla
conclu
##eala
funda
serviciile
dispoziti
##utului
transmite
bel
incearca
dolari
cro
trebuia
craciun
prezi
##cului
rezultatele
lungul
facute
inregist
ridicat
fiul
cin
finali
70
radu
celelalte
but
protej
##rti
miliarde
##ogra
codul
##rcea
##matica
anim
##date
rele
opin
urile
toam
desp
transform
lovit
medicale
##mult
parcursul
constie
##urg
imbra
situatie
incredere
##reasca
ben
educatie
radio
sibiu
structura
spate
pui
gande
sint
altor
##oturi
recent
adul
##omp
protectie
aero
minim
##ligi
##ptia
stap
stia
integ
vig
prelu
fierbinte
companiei
##vat
promo
suflet
##stele
mant
dezbate
##zatoare
credit
##bia
sesi
uniunii
maxi
ling
intoarce
dul
##rca
trase
sexuale
vedem
vorbit
##con
##mise
investi
base
cativa
##rol
deloc
aliment
medie
miha
arhite
membrii
ane
fiindca
link
cerut
asadar
celeb
judecata
##iene
pache
imagine
##hia
rutie
##ilalti
duc
rit
dragnea
sil
verde
feno
protectia
spatiul
##ologic
aratat
introduce
existenta
adres
##icile
facil
complex
ep
limita
ka
domeniu
administra
evenimentul
uci
ceilalti
prefe
administrati
libera
son
ministru
cercetare
unic
distanta
fiu
asistenta
36
##vie
avoc
##ork
aur
191
studiu
flo
multumesc
2006
economice
som
propriu
wi
soli
pnl
parinte
manifesta
marturi
##et
depune
##ciu
preluc
sanatatii
femeile
capitala
sarbatori
trimis
electora
##relor
##jun
bugetul
principa
simil
lunii
aveam
htt
confru
rete
##per
##mna
##dan
transil
dorinta
##artea
##voca
##strului
dragoste
invatat
acoperi
dorit
animale
micro
dispozitie
mircea
##ju
reprezentantii
##darea
adrian
07
##ritia
piatra
gust
196
concent
serviciul
ascun
insi
descoperit
##tea
##gea
ambele
fede
franta
achizit
aparta
intai
comerc
##ieli
sancti
vala
inteli
gh
altul
beneficia
recunoaste
organizarea
abu
zeci
recupe
spatele
##sia
procu
##son
##mara
sexy
insul
utilizat
caracterist
##cine
sapte
oferit
32
fizice
case
retele
sh
procur
vii
##itei
mail
masini
solutii
##sem
financiare
viitorul
adevarul
muncii
realizarea
noaptea
televizi
procuro
informatiile
bor
mel
09
religi
ven
elimin
doamne
toamna
echili
plina
crest
rela
oferta
##ob
##sim
specifice
ed
##tile
perspe
##vada
##sera
##fecta
conflic
ceri
investitii
cind
asteapta
tanar
nota
dna
bate
sute
refle
recla
atinge
politie
bb
semnat
##colo
substa
intamplat
caruia
instanta
##ietate
##verti
carora
##geri
##ler
zece
preveni
##anca
crai
conducerea
incerca
moartea
inspector
300
02
tinere
necesara
lucreaza
stabilit
doreste
poata
##lare
problemele
usc
ameni
##bul
presedintelui
det
01
descrie
ferici
parinti
cuvantul
sos
ingre
##utat
##alitate
actual
taxe
teen
picioare
misca
noroc
tana
merita
frumuse
aveau
##atic
##gare
soluti
amena
##cit
uniunea
finala
democrat
generala
struct
cos
ridica
nat
rasp
uman
design
securitate
##iesti
lucrarile
33
vrut
mei
restul
##itari
republicii
tub
vigoare
boala
##fu
exprim
directorul
editia
##poi
##siona
cic
filmul
elevii
##aru
sot
stoc
xxx
ji
curand
imparat
sprijin
##oale
culori
experi
##reze
##eama
bro
##basa
deschide
seful
educatiei
cup
nic
##vita
rata
domen
turne
rot
acelea
gl
##nda
reprezent
##ful
##rimoni
tere
##loace
combin
##gure
dincolo
atitud
mijloace
patri
##anului
cercet
vest
iesit
##50
introdu
acesti
conformitate
serviciilor
##nesti
##sirea
constat
aspect
sustinut
##cel
test
italia
##zile
##tilor
degra
alco
directia
##jului
incheiat
adevarata
pasarica
yo
victor
##urs
##nteaza
gran
desfasoara
busine
stau
stimul
suge
2000
##hannis
lunga
folosite
singurul
text
##rima
atribu
vas
agricult
##ger
##ntal
hai
incura
##schi
tehnica
vacanta
##ple
realizate
mediului
gata
conseci
zamb
stanga
femin
titlul
autor
##urate
hand
##sibile
locala
##vii
mer
fizica
dig
programului
plo
##riorul
cm
realitate
arad
economic
##inale
inaintea
##ptele
##iara
##ghi
companii
dele
fire
intreg
sind
isus
##lii
basescu
sfanta
##hnic
internationala
liga
eva
liviu
include
fon
baut
pli
anche
circa
tal
pastra
functioneaza
grupul
comert
varianta
fapte
##ino
citi
##onati
timpului
aia
##riti
umane
agre
pron
admi
atac
astepta
frate
sch
natural
benefici
conferinta
event
2004
gaseste
crestin
rega
credinci
abord
stiinta
aro
facuta
economica
profesioni
jocul
agent
condus
tai
contri
inalt
tratament
propria
viteza
intoc
oli
campion
amen
gama
justitiei
insot
finalul
dezval
financiar
comite
numeroase
recunosc
buni
oport
doct
nere
modele
drepturile
produselor
crist
penal
new
virt
iohannis
sensul
##olit
deosebit
totala
ber
isra
##atice
inregistrat
##ele
mane
ascult
sansa
arte
expres
marca
str
##siva
##ker
##carui
dura
categoria
fix
aloc
municipiul
confirm
ala
didact
exclusiv
castiga
capul
##ctiile
##pei
##cie
impo
elemente
##onar
rog
implement
romanilor
##ceva
deoseb
trage
institutii
ambasa
comunicat
intrebari
videoclipuri
bucurie
desigur
simpla
mus
antic
dosarul
34
dumit
referitoare
auzit
acorda
elab
clin
zilnic
transforma
##by
scoate
careia
atmos
absolut
non
live
gabrie
fotografii
suficient
altceva
diferenta
tab
##nici
definiti
cet
mesaje
spit
mures
business
imparta
cif
flu
prieten
gaze
arhi
napoca
clic
revista
grade
sprijinul
##ficata
societate
##umb
orase
##samb
student
eficienta
lichi
activitatii
vorbim
##ologica
##phone
autoturi
##oaie
stic
suprave
pozitia
bic
##cani
prieteni
companie
util
retin
rezultatul
pd
disponibile
##bura
inteleg
actuali
derul
meta
iv
orele
inten
concure
interior
aeroport
viitoare
imprum
precizat
##anghe
idei
grasi
comunicare
monitorul
set
strainatate
iii
ile
iau
judetului
profesor
##venta
fet
usa
coope
spa
realiza
##sita
oricare
ph
subiect
episcop
##ogle
cheltuieli
universitatii
193
##com
contemp
insusi
##ical
camere
echipei
propus
muzeul
hotarare
etiche
decor
treaba
coc
minte
constituie
folosesc
german
tata
tehnic
securit
##iasca
select
teritoriul
apost
boli
ponta
parlament
oricum
cioc
cererea
spal
##inarea
bolna
semi
initial
argu
th
ump
ingredie
##sari
metoda
casei
fonduri
##siunii
##arele
srl
departa
elevi
hd
grav
performanta
teatru
mijlocul
fim
parintele
tinut
cariera
sotia
gandit
fer
extraord
caf
jud
raspunde
voie
##dra
simbol
surpri
adopt
##zo
influenta
##sive
situat
specific
piele
oportun
femeia
partidului
##get
raman
##sus
##alului
##rus
moarte
corpul
##atisfa
editura
##ye
momente
##tiile
anterior
ach
solutie
dezvolta
voc
schimbat
google
inov
##pele
primar
explica
relatii
##ms
intrebat
##ya
rezerv
mese
dovada
piesa
##gia
transmis
plane
gala
08
##cilor
cresc
constituti
mone
aplicatii
pr
conducere
volum
##uiesc
rosu
furniz
##nale
period
veh
apreci
aparitia
##oanele
proced
##den
principi
vreun
2005
lumin
afecti
neagra
concept
agentia
literatura
##rid
succe
sac
conve
vul
plimb
atelie
cui
documente
scolar
vorbeste
interiorul
ordin
03
traian
##ografie
vit
calatori
carne
fc
forme
##ang
sto
parea
fiscal
externe
sper
##ortul
satul
rati
ansamb
functiona
cante
nastere
conv
distin
inalti
bote
scand
modelul
perce
##mentale
minun
centrala
surse
intrarea
legat
intrucat
wa
comerciale
membri
##stur
hotararea
dialog
inapoi
daniel
transfe
##oriei
##arh
05
##mes
195
conducat
speciala
jucat
##ber
averti
apartin
ilu
engleza
rab
imaginea
suta
legale
##tata
rugam
foloseste
opera
ecran
doriti
galbe
poli
##mon
asociatiei
specialitate
##sche
deciz
concert
decizie
##ieste
aflate
06
38
##leaza
transilv
supraveghe
efecte
profesionala
fructe
faza
noti
cron
stea
valea
consulta
37
relig
cristian
adaug
pomp
##ky
oara
monitori
##arga
imagin
aci
buget
fondul
alegerile
##uno
##supra
monu
##onescu
responsabil
energe
primavara
##ware
tes
satisfa
aust
iubire
##ll
stabile
neb
##ateste
arge
britan
inchisoare
moderni
vada
prot
conferi
fili
emis
tinerii
sectorul
##nita
culturale
respecta
distribu
detine
productie
afirma
gasesc
crite
##suri
kilomet
##ale
egal
##zilor
rac
frica
politici
cook
rezultat
reuse
rezerva
nut
organizeaza
parche
presupune
intelect
ilie
serviciului
criza
brand
modificarile
##delor
puternica
metal
##ratiei
relatia
##utiv
adesea
stiti
##ir
urmand
capacitatea
finantare
read
luci
evidenta
obisn
domic
craiova
mintea
##cile
fuse
smart
##aturii
##ateasca
pielea
inconj
ke
profil
spitalul
nei
gradina
promovarea
pregatit
desfasurat
completarea
initiativa
incredi
dai
considerat
iisus
medical
http
intera
locali
48
prietenii
fenomen
partener
##ntit
##ptii
guverna
comunica
premiul
deasupra
accept
amenaj
compozit
mp
alerg
faptului
##stului
generale
adun
##atei
obli
##oda
##wa
trebuit
personala
traduce
profit
##ologia
invita
##orte
devina
scriu
##alin
pul
determina
termenul
ig
sedi
impozit
olimp
infrastru
aduna
distra
lond
impres
obiecte
basara
costa
veche
uz
parlamentului
##mentara
alegerea
cumpara
vorbesc
multime
##bert
##atica
more
florin
mentionat
pede
programe
##sco
intors
verifica
multor
##anc
biblioteca
##rom
she
controlul
04
observa
seria
magi
rada
colaborare
##zar
referi
examen
istoric
depozit
iubit
culturii
wee
justitie
perspectiva
greutate
bbw
implica
celei
suspend
consoli
accesul
sov
##ner
ordine
cuprinde
prevederile
avans
tipuri
tarile
gratuite
odi
cata
##pescu
sfantului
mesaj
intune
elega
39
fis
vreodata
##arate
rob
cookie
dosar
meciul
sche
plati
padu
construit
activitatile
calatorie
europei
tanara
doctor
alimentare
drepturilor
rutier
##seze
locului
cosm
state
vand
apara
simtit
oradea
medicina
market
primariei
paris
aplicarea
privinta
ves
stre
##sen
politiei
posta
juridice
treia
actiunea
discutie
tric
scurta
ciuda
atata
pronu
rest
magazin
aduc
conect
uria
principala
localitatea
actuala
sune
superior
prins
domicili
asiste
##ff
dege
mete
pose
reveni
crearea
##inara
vicepre
bacau
voia
savar
##oiu
alea
##rari
##ricul
sfant
carui
acordat
dispune
echilib
ideal
strat
hart
sho
puna
discuta
speranta
stele
piese
vaz
china
slab
planul
sezon
atmosfera
priorit
##scri
zbor
alter
don
galerie
tras
asteptam
obisnu
milf
intern
municip
chine
diagno
trecuta
miscare
aceleasi
bule
chesti
singure
cazare
##mica
raspunsul
acte
##misi
##itale
educati
oferite
tehnice
##iesc
ajunga
corpului
##bali
negre
botos
marele
ang
maine
##tie
evanghe
raportul
dro
aute
undeva
##vele
respi
experti
prezentate
adaugat
petru
paul
##nter
patrimoni
aleg
emine
sofe
##alitatea
intalnit
bata
prile
aplicare
usoara
aseman
realitatea
organe
bucuri
incad
##psa
##plini
imposibil
ferm
dorm
sarcina
unitati
soft
44
41
rezistenta
constructii
ic
caror
pina
##itelor
management
contextul
impie
##ove
##oza
civili
liderul
vers
aflati
vanzare
##riilor
tranza
permis
##gar
batran
inch
negoc
##mers
##sel
urmatorul
intalneste
400
##pren
##ouri
2003
cumva
complic
celule
reducerea
##latiei
anual
##pie
##bire
bogdan
##andar
radi
penala
accepta
mobile
institutul
2001
mecani
del
42
afis
administratiei
inscri
reve
##ation
##para
platforma
transilvania
incet
ure
barbatul
genera
##curi
pis
binecu
ume
cuvintele
cf
##dului
hol
gat
credi
iulia
constant
##ser
mancare
##zeci
politia
grupa
curent
##ny
urb
dezvoltarii
prezenti
##cen
canta
bon
color
gim
tabe
frun
roa
rei
##zatia
maxima
##stare
iubirea
##seasca
celal
scolii
colect
relax
fort
scos
dragostea
utilizare
sanatatea
paro
sezonul
regim
alcool
traiesc
idee
rura
interviu
##uptie
cunoscuta
moste
impact
ingine
##mail
##ko
##uca
angajati
##────────
electrice
continut
autoritatea
bebe
##sme
optimi
putine
bala
rama
puse
##let
industria
tero
div
sfat
##ld
modificari
##vesc
relatie
functii
carei
men
sori
publicului
##luri
##uieste
foa
poporului
jandar
central
55
antrepren
intar
gimna
publicata
folosind
spuna
elena
numi
##starea
##mir
casatori
efectuate
dracu
autorul
##rani
aspecte
continutul
adulti
inau
centre
##onez
larg
##mer
provoca
##ntiale
clientii
combate
degraba
150
domn
categorii
bre
spectacol
organizate
pericul
##telul
occi
constii
news
tom
marius
##versa
##atesc
organizata
izv
2002
rein
scor
tratamentul
parteneriat
ip
##ong
suplimentare
farma
regiunea
##len
##ed
postul
reda
##ciara
medicala
zonele
sensibil
venituri
ceai
totii
armata
davi
wil
kilometri
temperatura
roma
##itii
catol
ungaria
militare
pai
##zz
##rurg
plaja
exceptia
##roasa
cert
rap
##teze
tribun
contractului
administratia
premierul
zb
##rite
##mene
manastirea
conteaza
192
mont
intreru
##red
##put
ministrului
lucrarilor
ful
mascul
dedicat
indeplini
43
prevederilor
partidul
csm
ordinul
furt
descar
soviet
respectiva
avent
secolul
institutiile
cuce
festivalul
autoritatilor
evre
gosp
crim
uitat
intrebare
domnis
recon
evaluare
celalalt
hom
lapte
grig
deschisa
##pro
##zelor
antrena
nein
popescu
##ght
asigurarea
anilor
finan
informeaza
petrecut
active
utila
populatiei
resurse
vesti
##th
andre
libertatea
suf
by
subti
ruse
apei
##inata
permit
atrage
contracte
sportiv
indepart
urmator
diferi
tinerilor
profesionale
marcat
ordonanta
mm
provin
##ierului
festivalului
teatrul
##gani
scaun
demers
cance
##scale
proprii
motivul
contractul
obiect
centrului
permanenta
hal
militar
desig
taxa
atent
secolului
dorim
##dentul
##gan
declara
cunoscute
britanie
##umat
galati
ciud
grupului
interesul
75
imobil
moldovei
privat
cob
eg
deplas
cetatenii
conserv
imen
##don
sticla
marketing
pace
actiunile
cetatenilor
coti
dans
interesant
##nto
trait
alternati
respective
ign
47
parlamentul
##cle
tva
schimbare
volumul
scoli
seve
ucraina
prost
49
lucrarea
dispe
parul
titlu
xi
folosirea
ulterioare
realizeaza
intretine
grea
inscris
##ateaza
cafea
tud
unica
intregi
investig
participarea
comunei
2019
not
sectiunea
autostra
##zam
legal
magazine
diagnostic
facultatea
##venti
dispar
incen
medicul
facea
##des
aprobat
mae
proprietate
##derii
##rel
cursa
##inali
scazut
procesului
eficient
##eze
vinov
##scuti
capat
cadru
dreptate
justi
adapt
##ten
##inilor
incul
abil
slo
urmatoarea
##zatie
cocos
mur
dun
##oriale
biserici
bil
acumul
dimensiuni
schimbarea
og
realizata
vicepresedi
personali
crestini
bea
publicul
kg
curi
caldura
bai
lectura
inim
pap
sexual
elevilor
##10
permanent
asigurari
urs
buza
explicat
trup
##gari
premiera
sapta
locurile
critic
afere
acordul
iubesc
rut
indem
israel
pozitie
constienti
evita
vali
##icala
clientilor
produsul
vecin
epis
campania
saptaman
drepturi
46
detali
buz
izol
pagini
cada
comunitatii
asculta
reabil
##inala
concursul
favori
sfe
##siunile
cerere
necesita
targu
##anescu
contrib
##ich
formula
bicicle
spect
lux
##rane
intens
filos
stabilirea
##luc
angaja
naturala
indeplin
cot
obos
sl
rezolv
botosani
evenimentului
##pada
os
show
plani
##isa
indrept
standard
preturi
sare
##oniale
moderne
parintilor
cald
bac
fotografie
precedent
directiei
civila
hard
utilizate
stilul
##cr
##icu
remarca
impune
sinte
felic
televiz
alcat
sate
contul
genul
firme
##gara
cealal
##ere
##oro
membre
##ks
moldove
##ntati
comen
teore
traditionale
telefonul
pielii
suferi
hotarat
1989
plic
fizic
dovedit
mut
scapa
pavel
meni
dispozitiv
reme
mesajul
nom
textul
confrunta
ura
##nteles
disponibil
mainile
nua
puternice
rapida
terminat
cealalta
curata
dumitru
##inar
regiz
discutii
opri
##sch
perfecta
alimente
baga
citate
jucatori
incuraj
vedeti
opre
dam
copa
##rescu
ajute
##rimoniale
mitrop
gandesc
campanie
adec
parcul
fiica
intenti
bucur
apart
eminescu
pericol
nevoia
##net
executiv
dulce
curtii
teod
start
cai
senz
##matice
clienti
crema
trecerea
mad
temperat
vari
depinde
##aniei
obtinute
imprej
mort
pedep
vlad
##itata
aduca
larga
##xic
colo
##cini
credincios
interzi
depus
feminin
televiziune
autobu
excelenta
##bes
repro
riscul
kla
inge
platit
sanatos
istorice
original
banda
##streaza
relatiile
asteptat
ief
rost
51
fle
tradu
##del
##que
ipo
home
informare
tipul
reala
uite
65
##veh
america
afirmat
alia
es
##mentar
implini
##ovita
duhov
chirurg
aspectul
##venind
##lina
populare
masaj
spania
impart
bom
camerei
compar
intelea
treilea
##uat
trump
sociali
licit
noile
modern
ocazie
functionare
nunta
##matic
egi
scrisa
colegii
teama
lansarea
##reme
##plom
mearga
cheie
##ratis
folosita
deputatilor
autoveh
linia
numita
preot
frag
neaparat
##ficiale
##her
arbit
refere
numara
cartile
gradin
parf
asoc
arhitectura
inghe
david
cursuri
probe
cautare
cetateni
supre
cle
imprumut
exerciti
##ptura
baz
pregatire
gasiti
palatul
expune
dificult
reusi
diplom
autent
sisteme
##oreaza
incalzi
transpare
placere
birou
instrument
##uiasca
##zice
bara
##nire
mondiala
ud
necon
proiectele
##ant
fusese
condamn
stabilite
oaspe
rede
grave
iese
dip
consult
interventie
cerc
familii
implin
mature
ilum
judici
divi
dreptului
ajutat
hartie
copila
##mar
praf
fericire
itali
##arda
difu
baieti
##gres
campionat
nud
sotul
corecta
tudor
suferit
brate
simple
posibila
rug
litera
amenda
zahar
fiecarui
financiara
peisa
moda
continuat
exprima
neamt
##ritatea
existat
culoarea
matrimoniale
##oul
plea
sav
imbun
52
1990
table
mac
aband
administrativ
compa
electric
ramana
plante
fetita
##sire
intrebarea
##nera
londra
purta
anumita
ovi
fetele
##oriu
obtinerea
binecuva
intelige
argi
efectele
constata
sustinerea
metode
trecute
53
poezie
fiinta
petro
##lant
free
ned
obligatia
##titi
calitatii
##nat
capita
##misa
libertate
clipa
gandul
judetene
vizuali
cazut
##ovici
energia
rosii
consumul
ot
cunostinta
ierar
consuma
klaus
haine
##mare
ofite
##dentii
valorile
arat
melod
observat
tulbura
origine
dati
principale
prete
##mati
maram
regele
urilor
devin
procurorii
potential
vac
tren
elve
ange
cerceta
articolului
domenii
ies
cape
automat
fiscala
##ndu
remar
##ys
traim
victoria
ari
evolutia
##ntarii
54
angajat
electrica
conditi
vladi
cabine
exploat
raza
labor
facand
preturile
dobro
rasa
alegeri
depla
##ienii
suna
deschiderea
evit
circulatie
retur
##ulara
oprit
fiscale
obisnuit
one
##ceanu
statelor
##ds
abuz
ofere
prefect
opinia
numeste
recip
oricine
oficiala
scrise
reteaua
linie
desf
plas
aparea
ortodoxa
cautarea
semne
proasp
57
pamantul
dieta
spatii
odih
luam
sindic
chip
baia
pleca
productia
miste
##xt
varf
afacerilor
bucatarie
chin
##kend
patriarh
##lit
dol
ton
voluntari
navi
deschise
fabrica
curaj
chat
emite
plastic
jocurile
popa
independenta
tempora
opozit
judet
studenti
##cas
##lome
##din
sarbat
##cere
##hie
rezolva
##osul
red
gor
##late
luati
##fo
ent
nerv
retea
inculp
##unt
potriv
vete
masurile
primeste
culti
retine
context
trupul
biroul
weekend
penale
categorie
primii
private
fan
##ranj
##atoriu
colt
componenta
ploiesti
medicamente
juridica
unitate
specialisti
necuno
##oriile
gasesti
poporul
simpto
reprezentanti
recunoscut
slujba
umana
demis
cumpar
termina
clau
respectarea
admite
600
noului
marginea
##inic
##fia
putini
##inteles
gresit
invitati
apartine
reale
curte
diferit
contribuie
generatie
referend
austria
centrale
gabriel
marile
propriile
##zil
##land
corne
delic
##alia
exterior
propunerea
premii
fas
late
99
aparare
##ance
##ei
motor
capitolul
56
ok
parc
glu
institutiei
petrec
auzi
promovare
bucuria
##nci
uim
condamnat
beneficiaza
front
depi
scriit
nes
zapada
ama
solutia
solicitat
populatia
##mm
imbunatatirea
apropierea
capitalei
ziarul
stiintifice
##bara
tate
progre
existente
init
pod
epoca
matei
##ano
decizii
fiti
reziste
rosie
lot
##streze
iuli
##scina
ordinea
stadi
lider
##voi
actiona
##ruri
drumuri
primesc
##buc
refera
cati
patrun
bineinteles
mira
fum
surpriza
intreprinde
clubul
bistri
sorin
comunitatea
straine
serios
stiam
john
concre
64
convins
juni
medicii
simte
comparat
formare
turism
urme
doban
spiritul
efectuat
activitatilor
deo
aprin
steaua
economie
##dor
inregistrate
tehnici
mosc
const
dezvoltat
didactice
gradul
oferim
institutiilor
unitatea
##bel
dl
nov
ortodox
##iri
filosof
##tis
wind
galben
metod
stiut
ire
apropiat
energiei
inchise
mihail
cutre
sectia
refa
##orica
frontie
abre
sanse
locuinta
fere
avantaj
liberal
devreme
parerea
poezii
voastra
formarea
gest
sume
coleg
critica
crezut
materie
agentiei
executa
lupte
##ziune
agricultura
##multum
femeilor
black
dinamo
intrare
pt
tehnologia
imun
anumit
salva
audio
##bon
##xel
##inga
nemultum
discip
subiectul
temei
rod
bio
arhe
email
seg
raul
len
##ficati
avion
administratie
deosebita
inferi
##tara
##usc
turcia
treaca
duhul
scara
##lim
norma
##rte
##sip
straini
pleaca
declaratie
hidro
sue
pad
prevazut
capital
constatat
cupa
organizare
oferte
nout
experiment
##dis
companiile
software
contest
aflam
personaje
impresiona
retinut
##seala
##ctiilor
##itudine
cs
creeaza
aduse
##ube
latina
curate
oricand
cola
propriul
##anesti
pati
durere
inti
ridicata
aparte
integral
luate
principalele
dragi
evaluarea
organizatiei
spiritual
##uci
calend
york
sexul
cartii
fabric
legiti
rusa
reglement
frontiera
pornit
picioarele
##mice
comentarii
record
trag
mos
indraz
substante
linguri
cha
colegiul
##ualul
190
incarcat
testa
cinemat
rugaciune
mc
air
spectacul
rar
implementarea
##mie
price
##dui
sha
##atatea
er
materia
mantuit
##voarea
blo
cantare
superioara
bucov
deta
depen
reteta
colectiv
stiinte
##seli
rat
##usul
marian
service
gratuita
mastur
audie
##bet
##alii
sexuala
individual
bunuri
cancer
##osex
franceza
unirea
update
constructie
tehnologie
profesional
desa
secund
praj
58
##vate
pietei
primului
populara
bulgaria
constiinta
##sy
economiei
concursului
pc
regimul
dispozitia
redus
pline
culturala
homosex
cadou
##insa
soi
##riene
porti
interacti
terenul
publicate
acordarea
##ream
artisti
intitul
releva
iei
actuale
membrilor
uit
imobili
fit
raf
marin
declaratia
fericit
insu
##lau
activa
##escu
off
manipul
efectul
demn
uitam
decit
##ciei
protoc
liceul
organ
papa
import
vene
evenimentele
feci
privit
interesante
invi
hotelul
apropie
buzun
meste
tablo
romanul
play
abreve
legume
##rez
parere
acuzat
apararii
pregatirea
aferente
revenit
zg
arma
gospoda
nato
legislatia
sector
germana
sarbatoare
##bis
##onie
targ
sold
sfaturi
rul
indrago
consilier
persoanei
##oarelor
caracteri
catalin
##otera
interna
sportive
munc
efectua
fratele
padure
fosta
obiectul
circum
apropiere
magh
definit
grecia
respinge
scot
harta
citesc
##itarii
schimbari
##lr
end
solida
piet
aflata
impresi
##alizarea
scul
pedea
indica
##ji
fundament
##stina
votat
calda
organizatii
250
statutul
documentele
cumpa
forum
pala
sublini
simona
cutrem
caste
##er
inm
bri
lucian
partida
pite
fundatia
echipamente
##nten
rev
finantelor
spui
ingrediente
baiat
click
##rolog
descarca
##ota
gla
moscova
insula
pedeapsa
publici
##stiti
pit
ganduri
spunem
##stia
grupuri
supraveghere
informatiilor
denumirea
calu
##24
civile
competitie
piept
constructia
straluc
transportul
oglin
numarului
pastreaza
pauza
comentariu
inteligenta
tineret
restri
demonstrat
##cl
confort
59
compute
shemale
emil
personalului
arges
personalul
prezentarea
buzau
lucrul
reprezentat
profesori
cafe
sora
vizeaza
incomp
##ocup
punem
sacri
suprafe
pamantului
spitalului
##mpa
infe
competenta
sufera
##ursul
global
67
consecinta
minci
intelegere
administrarea
reclama
ortodoxe
prezentare
sme
organism
liceu
agricole
preventi
##ozitate
eugen
estim
recomandat
ki
elimina
mig
istoriei
traieste
hune
continue
partile
lesbi
guvernare
morti
##hei
mona
dispus
exceptie
major
gaseasca
profesorul
vraj
##cenic
adoptat
usuri
ocupat
paste
pale
nera
##tale
##star
actul
##uro
entu
##chia
pietre
##zului
capacitate
prefera
polonia
studio
windo
##spon
preferat
website
##zarile
studiul
duca
parale
entuzia
spectacole
restaurant
nucle
##vente
politisti
minunat
angajatii
tw
rezulta
atatea
moderna
dimin
##sion
comunitate
sap
excepti
nevoile
comercial
##deze
md
considerare
utilizeaza
sfert
ceas
##bare
##pci
##roid
apostol
asigure
punctele
##ens
afecteaza
posibile
propa
##buri
deleg
semnal
patron
prelun
clubului
popor
trime
industri
intalnirea
bron
circula
##cari
##sac
sor
dedicata
albe
##oft
fine
valcea
educatia
barbatii
implicat
##bus
urmarit
contempo
ovidiu
functionarea
##urgh
promova
crezi
participantii
audit
spani
2020
##dentiale
ml
dator
robert
tipa
fundul
prevenirea
prepar
usurinta
85
electro
ampla
##inate
liniste
damb
proc
franci
specialistii
out
competiti
##hor
##cire
destinate
studentilor
subord
cladiri
veniturile
locuinte
dn
mamei
##rta
intregii
giur
nasc
##set
adapo
americane
automo
mentinerea
ren
ou
retro
stres
##dy
##larea
participare
sonda
abse
id
note
credem
interesati
spuse
occident
parcare
pusa
expi
conforta
agentii
studentii
faptele
##niu
ultra
institutie
nem
vop
gun
##stro
smartphone
##ceni
pictura
##ntiala
regulamentul
##lav
studiile
olte
medi
##30
rare
##ity
locuitori
legata
intervalul
cen
pof
cuprinse
participanti
bugetului
frumusetea
votul
mecan
obiectivul
prospe
fanta
cupt
tina
reuni
lucrare
##olata
destinat
doresti
800
##tina
miscarea
administrare
acceptat
identifica
serioa
asf
licenta
hale
povestit
card
cercetari
inteleaga
deosebire
similare
incheie
universitar
##king
ager
##urul
bebelus
##gue
##cipl
##nturi
directa
secunde
prest
proprietatea
##ien
decide
antici
groa
deocam
fotbali
##tiilor
terori
multumim
corespunzatoare
altora
deputatul
ome
dificil
proiectelor
apuc
campionatul
##21
impus
folositi
academiei
esenta
##sam
prilej
deocamdata
mentionate
hrana
preocup
francez
ron
##forme
pierderea
placa
##cele
credea
casatorie
##oarei
esential
aceia
prezentei
venea
orizo
vladimir
tulcea
fortele
tranzit
recen
aspi
tanarul
teste
##duit
adanci
completarile
societati
invatamantul
spectacolul
##riana
##inati
reacti
placuta
popular
##sto
city
mond
windows
apele
inalte
invitat
jucator
cura
dre
##fon
militara
##biene
instrumente
tron
putina
##ologi
##ritie
##roc
66
bord
soarelui
##uiti
metro
infrastructura
mortii
##pp
eliminarea
infiintarea
referitor
memoria
##ctare
tinta
meciuri
scorul
grele
vaccin
identitate
voa
bere
inaltime
##oral
electronice
frecvent
laure
episod
cip
obligat
sectorului
corespunzator
bruxel
agerpres
##bri
lauda
imbraca
musc
favoarea
pitesti
dict
regiune
bistrita
scandal
efectuarea
arate
tone
perfecti
potrivita
grigore
inregistrare
distrib
indo
ancheta
##ronom
##dii
poza
element
comand
vizibil
accele
##ografia
##randu
sali
organizatia
vag
reducere
etape
violenta
atins
iasa
risca
mondiale
sy
mandat
##renta
##dita
vointa
gasim
certific
atri
indoi
voastre
##ulescu
##cturii
voturi
discutat
voda
accesorii
iert
##mentari
oficiale
sab
alde
export
cheltuielile
trupa
##ierilor
naturii
localitate
spirituala
parlamentare
##vata
municipal
95
vocea
misiunea
##ologii
indel
rusiei
confirma
renunta
religioase
tenis
anexa
cn
examin
tvr
pregateste
salbat
tatalui
120
all
medii
propunere
lovitura
semnificativ
cfr
##mile
razboiul
refuza
cautat
refuzat
##orme
intelepci
##stan
ordonantei
filmului
comunist
sufletului
somn
cantitati
huned
negative
ridicate
pachet
minorit
ava
considerata
creativ
teatrului
greseala
atitudine
comunicatul
flux
reguli
arhie
reviz
nai
glob
satu
transformat
urmareste
electronic
infa
neo
impiedica
victorie
silv
intregul
andreea
lasati
economia
aplicat
##ham
soarele
relativ
deva
client
esc
parfum
interese
primite
bij
##mentarii
3d
revine
cov
##eal
satului
incheierea
##oasca
anticor
spori
##sb
sincer
prevazuta
consec
inj
dureri
definitiv
mass
portu
profund
pensii
strans
acelui
desen
cule
##uirii
mergem
nar
unitatii
pct
conflict
apartament
maini
masculin
amintesc
vaslui
arme
bruxelles
##riului
limbii
antena
malul
dosare
elementele
liturgh
mobili
simpli
cerea
hra
muntii
iphone
##rire
manual
##fax
turistice
frecventa
formata
##dom
##viste
desfasurarea
dow
preluat
medici
cated
expozitia
tendinta
##lian
utiliza
introducerea
impoz
suferinta
##ntina
gratis
arhiepi
rena
##bre
increderea
##ring
vizitat
purtat
##mpi
utilizatorii
grasime
virg
preda
cuprins
absor
imaginile
##rirea
lungime
pozitiv
##cerea
formeaza
plateasca
referinta
amint
colectia
bogat
android
amuza
inspectoratului
tumb
bolnav
arunca
amiaza
taie
##stase
cuplu
parut
situata
factori
separ
vehicule
esentiale
autoritatii
securitatii
alegere
crestine
##ome
urcat
lunar
ataca
randuri
##inescu
dedicate
dublu
declaratii
##poarte
amand
create
europeni
##sarii
micros
aplicatia
tumblr
privata
construita
zero
##bar
diplo
wor
scrisoare
sfinte
utile
bm
atenti
sentiment
sprijini
##ras
##rator
americana
mijlo
efectueaza
bazeaza
favora
onoare
clasic
##onarii
amplas
scaz
arhiepiscop
##rine
vehicul
stai
##berg
atras
1999
partide
##unarii
unirii
majore
pacientii
apreciat
##fat
casele
desene
evalua
188
cunostinte
vizite
eventual
produsului
##ht
yout
vran
succesul
##riere
ela
competente
traditie
brow
obiectivele
vea
independent
##cs
##rasi
merit
standar
desemn
vitamina
vreti
##orate
##vas
##ieze
##orial
institutului
sarcin
austra
forte
bilete
giurgiu
impresia
primeasca
paine
unitatile
hunedoara
praho
orei
deop
##ont
recol
chil
manager
informatie
prelua
consider
actele
socializare
##onald
modal
asiatice
##anat
comparativ
##otice
cantitatea
##oneza
##deaza
organismului
##ografice
bogata
##ise
motivele
##ith
##oresti
##spreze
vostru
viu
fut
br
greseli
##sec
matematica
utilizator
##ril
##alit
##gerii
secunda
insasi
proven
##fecte
##ptiei
flexi
dinai
cota
roz
fug
marf
cifra
##cesc
ligii
61
publicitate
majora
##aa
lesbiene
ingro
magistrat
jert
interse
dige
comparti
defic
ble
##rve
avan
victima
inva
luata
intervi
##oric
presei
bucurat
noii
populatie
zgom
relu
vacante
sams
beneficii
informati
cristina
legile
costurile
coment
penite
totdeauna
afectiuni
##oxi
superioare
reprezentand
mediafax
partial
##ficari
invins
oriunde
##ari
excur
creasca
lase
cantitate
individuale
destinatie
atit
##zon
apple
comparatie
##ctorul
##jeze
neva
durerea
bob
cosmet
afric
valor
insemna
dadea
prezente
##stita
line
centen
lapt
dispozitive
distributie
singuri
conexi
sanatoasa
bancii
varful
condusa
civil
##wer
plece
tabara
preala
via
bijute
autoturism
##zol
cerintele
debit
##fen
lup
campul
cetatea
profita
precizeaza
expert
##vire
dacia
album
suflete
subiecte
tudo
accesibil
implicate
citat
regia
char
faina
afacere
ceause
puterii
legislatiei
wh
asigurare
##oca
mergi
##ela
zo
tehnologii
##ness
instructi
sterge
conditia
amanu
fiecarei
bacte
ocuparea
premier
##arma
miros
##nteze
deplin
industrie
fostului
incluse
pdl
salariul
practice
intelegem
verzi
##viet
acopera
taran
economici
sublin
nas
locuitorii
stal
nef
limbi
aparatul
189
##lar
credeti
apas
samsung
tie
##bata
targo
cetatean
69
pon
##uz
##cov
primei
geam
##rusali
187
autostrada
turisti
77
porun
secole
cerem
##galia
##zez
echivale
##kt
cladirea
calara
sotie
jucatorii
gros
##vitatii
fapta
mix
firmei
urca
nepla
traseul
ierusali
supraviet
statea
preoti
vata
libere
hotara
muta
prelungi
amatori
juridic
tribunalul
implicati
liderii
batut
dubla
activi
aprecia
prej
nasterea
mala
invete
mobila
organismul
grava
##cila
razvan
standarde
conditiilor
calitati
participe
deal
armatei
utilizatorilor
dunarii
sk
##anos
facultatii
normala
nede
ascuns
##anele
semnul
##cent
versiunea
##rest
ceausescu
##peut
victime
ascunde
wal
asemanatoare
boc
scopuri
presiune
posturi
##cesti
##ologiei
##oresc
includ
ceara
copilarie
dane
indoiala
sun
asum
maturi
traficul
into
planeta
alat
1000
##icale
utilizati
trupe
oce
##zabil
aproba
caracteristici
artist
coada
actioneaza
militari
securitatea
aeroportul
negativ
disparut
halep
susp
##riat
revoluti
clara
conferinte
asigurat
inimii
dimp
700
functional
office
vitamine
referendum
incor
saptamanii
federatia
progno
albastru
presc
modificare
maicii
speram
crestina
campaniei
principiul
aventura
planta
creatie
cotidi
schimbe
comportament
efectiv
proteja
poste
63
##ografic
oricat
##ricat
cerul
expl
tort
scolare
braila
##stu
regional
convers
resedi
planurile
##utele
cladire
aruncat
ionut
turn
zod
ciocolata
optiuni
68
vant
postului
specialist
noptii
separat
vandut
cazurile
76
pastrat
##znic
##ultura
infractiuni
tole
regionale
lupt
traditional
72
##chea
subliniat
##orati
omeni
remarcat
confirmat
job
##rali
domiciliu
eficiente
ucraine
##lope
incape
concluzia
##sfi
umbra
milion
tendi
inclus
arb
producator
iubeste
bec
companiilor
perc
world
intrerupe
infi
perioade
maramures
luca
secrete
penitenci
decenii
picior
unt
trecere
plicti
##orale
62
laptop
primarului
adolescenti
complexe
electorale
aerul
microsoft
emotii
sfintii
acordate
inspectoratul
discipl
argint
circulatia
cititi
gandurile
piz
telefoane
soferul
profesionisti
varie
electorala
intereseaza
##nirea
specifica
##mid
stabileste
iubirii
interesele
taxi
ingh
##catoare
dovede
poi
academia
mila
institutia
ipote
punerea
regulile
##inse
personaj
pens
proaspat
corespon
pasiune
carol
lipsit
##cara
tent
cupl
vremuri
necesitatea
##vil
cursurile
patra
##usti
candidat
nastase
##rem
presti
determinat
antrenorul
componente
fondurilor
confe
firea
fr
repar
legislativa
scaune
gustul
aplicate
codului
##urd
sir
inmat
adanc
##sprezece
stop
ecu
magazinul
gea
indian
treze
mile
78
##nes
combaterea
##mate
localitati
reflecta
##dro
aplicatie
zonei
credite
reuseste
scadere
1918
ambula
cercetarii
parului
desfii
radic
construirea
dureaza
fals
delici
tinuta
my
lama
bmw
economi
puteau
introdus
rugaciunea
umple
rock
ingrijire
actrita
##oroc
domeniile
186
indepline
obligatoriu
##onii
modificat
benz
dj
ajungem
sfintei
blogul
##eapa
grij
bunurilor
sri
oxi
targoviste
alegerilor
strazile
fisiere
calificat
planuri
zambe
foloseasca
dinspre
ambasad
jul
parcurs
pregatiti
magne
organiza
pilda
cooperare
you
muncit
constante
americani
inchei
ilegal
construi
portof
masca
identificarea
##stici
nutriti
mitropol
miro
problemelor
##stept
exercitii
partenerii
mentin
1998
aline
amator
ya
frumusete
##sma
implicarea
##onel
casca
judeteana
relateaza
resurselor
buda
divers
autovehicule
propag
variante
##cal
televizor
##scar
##ocali
##bei
insar
finantarea
##gma
multumit
##ntai
alina
stiintific
##stituti
frig
isp
termeni
eliberarea
extraordinar
##ratiile
pics
butonul
##lari
regimului
pozitive
interioara
##ood
expozitie
muzeului
##ntale
##zezi
##verse
experiente
master
horm
bet
invers
rutiere
asezat
enu
tel
voce
stiintifica
ideala
strict
peda
##redit
principalul
##uel
galax
cadouri
oricarei
lazar
##dentei
valabil
solicitarea
oferind
##orala
cj
adreseaza
indicat
##liei
dejun
meteor
negli
linii
bicicleta
situatiei
refugi
drumurile
##ley
##bol
indea
obligati
gradinita
filt
adre
atrag
exemple
autoc
pescu
##onam
postat
##miti
soarta
genun
pricina
vanzari
##ntar
renum
selectie
ungh
initiative
##12
orche
blon
motoc
sam
89
protest
articul
ansamblu
nenum
trezit
micul
##icele
oricarui
banci
##ng
rabdare
scurte
cuant
max
depoz
programele
dispozitiile
depuse
##mida
aud
informa
ghid
fortei
74
anticoruptie
prelung
anima
uscat
potrivite
minunata
fericita
lam
dambovita
secretar
acuz
pasul
##zu
work
consultanta
##oreasca
preti
treptat
dur
intreaba
fini
kilogra
deosebite
ºi
capabil
britanic
urban
calarasi
atitudinea
creata
##ling
utilizatori
##lay
urge
##sor
##sif
##uiala
placea
indrum
ferea
supa
transfer
##onic
deplasare
paginile
multiple
cruce
departamentul
infin
traiasca
dezbatere
coruptie
youtube
##shing
misiune
celorlal
uleiul
##veze
istorica
partic
deschidere
minune
premiu
ajungi
confecti
jocului
muri
interesanta
unice
adunat
vorbeasca
chemat
hum
demisia
inuti
##milor
regina
formati
##spect
mananca
filip
deciziei
intim
cade
plasa
tinand
##rimi
draga
religie
comunicarea
preotul
vib
managementul
hip
divin
informatia
descopera
branza
diavol
continuarea
relaxare
anglia
##ular
razboiului
insarcin
teritoriale
alternativa
domnisoare
semin
maste
circuit
despa
anterioare
oarecare
federatiei
parasit
aprec
neca
teoretic
discrim
deri
##cator
dancila
adevarate
celorlalti
apararea
fondului
gratie
##ventii
viena
obra
aglome
scaderea
obtina
victoriei
relatiilor
##onezi
##ziile
iarasi
sina
tarife
initiat
##fun
goluri
desert
intri
auz
scria
##pute
sand
tun
abona
aju
otel
180
incendiu
licitatie
reactie
preferi
##hilor
pantal
autonom
prelucrarea
73
lucreze
calin
vulnera
bursa
cna
nominali
incercam
cererii
##gene
colectie
afectate
lanseaza
71
tranda
prietena
incalzire
carmen
romant
cartierul
defa
regelui
referire
fura
##dam
prinde
masinile
##seni
gabriela
discurs
responsabilitatea
temeiul
teodor
topul
personalitate
manca
capt
ritm
##nite
plu
fundamentale
revin
##gog
mihaela
##rovi
##mani
prezentul
##itudinea
profesorii
comentariile
raspundere
fratii
##silor
##organi
exercitiu
##nr
morma
limitele
suce
livrare
miere
blue
senzatia
implicit
ceru
viol
severin
interzice
pran
##diata
insol
spala
slava
indemni
evacu
ficti
donald
##ciuc
infl
lesbian
comportamentul
scapat
desfasurare
##dite
norve
invatatura
principiu
fic
anivers
fereastra
inflam
##hen
traditia
imbog
##uim
potenti
spatiului
surprins
dimensiunea
generat
desfasurate
iesire
datoria
bit
astra
pele
adjun
pacienti
##oliu
recente
##mbur
ioana
pragul
compati
generatii
bila
mina
since
operare
##jelor
medit
84
##andit
sit
bihor
astia
reusesc
biroului
ong
ideile
excelent
digi
modalitate
salarii
##cai
##atoarele
intretinere
97
scade
depasi
indre
##fata
combinatie
jean
judiciar
moral
alune
abordare
personalitati
firesc
prepa
producatori
strategia
mace
iesirea
##bac
argument
resedinta
regulamentului
cimiti
##ntile
##orel
berlin
prezinte
aminteste
##magi
##pia
xii
continuu
stoma
facultate
partenerul
materialele
patrul
1991
bacala
estul
atribui
brut
stapani
americii
descri
descriere
##his
romano
patr
flut
registrul
dimpotriva
fuga
simta
bei
artistic
competitia
prive
pota
aparate
bonus
incercare
alegi
proprietati
88
ingra
directie
factor
paralel
infran
bancar
sfinti
nisip
brat
confidenti
##fie
resursele
depasit
##dov
bacalaure
stralu
##qui
versiune
exprimat
armoni
##view
ploaie
trofe
petrecere
##rime
odihna
sistemele
##biri
blu
editii
mire
##sculare
##ografica
intentia
mize
preocu
##stor
##cute
costul
##alina
scriitor
vege
morala
majoritate
atare
##ofi
comerciali
nasa
contribua
coe
domnule
##udici
implinit
logica
digital
tamp
incinta
asia
suporta
invoc
##iari
linistit
brusc
manev
##es
rezona
pozitii
datoreaza
constituit
caracterul
impactul
arhiva
japonia
96
##otie
respins
momentele
scut
filoz
##anei
##ranja
##ski
criminal
sumele
spons
##zatiei
chipul
procent
agriculturii
##soara
##caruia
prada
organizatie
complete
big
eleganta
bucati
garantie
campionatului
normele
tariceanu
184
veniti
antreprenori
declans
deca
maica
##liu
emisiunea
eforturile
vert
cauze
eliberat
culorile
fondurile
faceau
toa
inregistrarea
nopti
materialul
candidati
procedurii
false
renuntat
interioare
primiti
raului
nationali
##state
##lon
##lan
##day
dulci
gheata
rapoarte
focul
cunoasterea
privesc
##core
##rinde
ciudat
apucat
tox
calculator
diploma
procurorul
folosim
devenind
112
zid
emb
valorilor
vrancea
nee
tum
triste
maximum
perete
compara
stabilita
sofer
suve
puri
coloana
##cuta
homosexual
vise
##feric
viza
secretarul
##garea
fortelor
clare
uitati
rusine
##sk
accent
##11
coordon
animal
deputat
universul
##gon
trandafi
considerate
raspunsuri
vieti
1997
pretin
turneul
anuntul
literat
informat
##stati
adunarea
executie
ino
hit
binele
##urn
compus
tem
imbunatat
inchide
zah
colabora
educ
1996
organele
memorie
##ulari
coli
amintiri
accentu
identificat
administ
inund
pete
contribui
echipele
practici
traseu
cresterii
termin
diversi
adult
propun
clari
colabor
apartinand
reviste
incercati
ral
teza
##prim
##urator
teri
joace
xix
##inarii
machia
dac
pusca
afisat
manga
digit
restit
doza
descur
vicepresedinte
vesnic
promis
dispa
sectiei
giga
animalelor
slabe
redusa
diferita
tor
traditionala
sani
autoritati
neconstituti
intorc
facilitati
##urea
electoral
actori
prahova
prejudici
##pr
clasi
insemn
##ielilor
consac
demult
antrenor
constitutionale
##siti
sinod
cami
minerale
disponibila
credintei
gazda
pasti
ars
crime
##ward
avocat
serve
irl
dusman
retelele
puteam
rupe
79
inlocuit
mutat
pereche
nen
##oanei
artistice
open
india
provoaca
gimnazi
calatorii
administrative
tineretului
femeii
alegeti
98
nebun
catedrala
oua
##sani
sul
##sese
mijloacele
clinica
lichid
##eamana
dezin
promi
inmatricul
##bale
compens
intinde
aeriene
pasiunea
ferestre
##news
invatare
edi
rub
artifici
gunoi
group
##lut
verbal
afle
angajatilor
salariu
mata
reparti
optiune
scump
deseori
olt
##alie
stapan
intensi
caine
conceptul
totalitate
fiecaruia
##plica
combusti
##ziei
##lator
##log
imparti
paroh
deco
86
##cheta
sanatoase
##lata
achizitie
frunze
examenul
debut
clasice
mexic
adopta
privati
strazi
##ls
minutul
nivelului
judic
asuma
celebra
usr
viziunea
interval
inscriere
##sirii
actualul
cluje
ambala
figura
ree
##orile
jurnal
strategie
iosif
##ctori
##icilor
mam
scene
imobile
sfintilor
ansamblul
executare
infiintat
comertului
supus
interventii
energetic
sustinuta
gandim
mall
dobrogea
reforma
semna
spitale
depres
incur
##unghi
ceapa
cartier
olimpia
valentin
##orata
insotit
acid
beneficiile
der
duhovnic
terasa
##jude
frati
##ficarii
iubita
amestec
gard
nordul
neut
ionescu
dinti
similar
indata
optiunea
bod
turul
declan
documentul
normelor
finalizarea
cunoastere
droguri
elaborarea
oste
##goni
socot
perioadei
muzicale
judetele
firmele
detaliile
sum
organizatorii
sw
1992
titluri
localitatii
animate
##ney
liceului
seba
electronica
rugat
executarea
afecta
producerea
carp
operatiuni
hy
manastirii
contempora
reprezentant
functiile
reci
urmatorii
concerte
pru
##riza
pensiona
##otic
ajungand
trezi
urbani
unuia
situatiile
vorbind
desavar
obliga
##lis
interesat
greutatea
deciziile
industriale
terenuri
izbuc
her
responsabilitate
oglinda
82
##so
##iau
calde
##iev
comitetului
principiile
trend
literare
revistei
basarab
##ologul
conceput
xvii
cristos
octa
iarba
statut
intelegerea
##oxida
shop
mara
animalele
sangele
kar
propuse
##mante
discutiile
terapeut
cronica
##range
faim
acei
ior
prajit
##elor
mancat
ax
##otii
masinii
furi
87
imbol
aparent
parta
cercetatorii
##ntiu
dezvolt
plang
abanos
ht
##mr
conditionat
coalit
eventuale
rusi
muzicii
mobilier
provocat
farme
roti
litri
preocupa
##borat
intervenit
actor
ucis
particul
dimit
deranj
evrei
performante
religioasa
sarbatoarea
furat
pensie
legala
dizabil
##san
vota
time
definitiva
corecte
varste
insuficie
extraordinara
porum
inceapa
pornografie
filmele
univ
hor
bunica
prezidentiale
serbia
cumpere
masiv
##ozi
irina
ignora
maghi
##olos
interventia
indelung
maniera
fericirea
leaga
dirij
camin
covas
puteri
olanda
suporte
furnizarea
ciupe
sentimentul
clasica
cinema
actiunilor
cort
nete
prioritate
##list
lacrimi
##vietu
sustinere
proasta
##bita
analize
repeta
bucureste
tig
substanta
camerele
perche
amesteca
visul
unghi
fat
canada
convinge
disciplina
egipt
##oanelor
importanti
pp
ieftin
retete
catalog
bazat
africa
##omi
cv
##col
viorel
##eni
credinciosi
##bilul
marelui
anoni
cheltuielilor
pula
familiile
contributia
obligatorie
dispozitiilor
han
banilor
nevoi
spirituale
imens
claudiu
##retul
complexul
senatului
proceduri
##ritatii
sudul
recomp
musul
dificila
antonescu
legislative
caractere
ieftine
leu
placi
inspirat
cercetarea
##back
libra
prezentata
indemn
mancarea
spuneti
privirea
criterii
intocmit
instantei
lasam
seni
ameninta
cadre
aerului
##lelor
exage
##oad
ferme
muntele
cerna
documentelor
preli
ucenic
arestat
subtire
poezia
incalca
recru
convoc
dezvolte
literara
##jma
extern
procuror
ascunse
urat
laura
aerona
limpe
##ml
creati
##ctului
reusita
den
compro
profesionist
isla
sezonului
groza
cruci
##opte
##ceste
marturisit
actului
amintit
drumului
##eara
schimbul
horia
asteptati
92
comerciala
83
salariile
jucarii
umf
conturi
functiei
seme
diasp
absenta
vanzarea
scolile
piscina
cina
lipseste
lugo
##dej
consumatorilor
##iul
bum
##fil
adresat
noilor
##uf
frecvente
podul
##xx
anaf
totalul
precis
pozitiva
expre
acordului
modului
lansare
cd
proteine
chef
##smele
cereri
rezultatelor
vai
marilor
autentic
secol
viii
vestul
ferma
invitam
##joc
suro
evenimentelor
parchetul
ador
gav
deli
pierdere
fruntea
##uare
formatia
cuiva
##sis
amintim
hen
contracta
##pad
spar
meteo
depaseste
fm
sig
fam
iron
cut
gang
cheama
xvi
##shop
trenul
sinuci
frigi
##geaba
provocare
handica
transmise
##atesti
moara
nefi
bunul
vent
modelele
cutie
lumi
acoperit
concret
limite
degeaba
##fina
isa
carnea
##mne
clipuri
book
partidele
utilizarii
https
preajma
coru
aurel
curajul
##itului
redact
fericiti
declaratiile
##veri
adam
pahar
prietenul
ascul
lingvi
judiciara
tesut
muc
advers
basarabia
educational
despagu
integrat
folosesti
back
contribuit
##gas
sep
##urati
taiat
contactati
veste
preferate
##iniu
acuza
respecte
cenz
##ntala
printe
nedrept
profunda
##ienilor
##onari
##hid
rezolvarea
plecare
sant
usoare
achizitii
nave
transparenta
mirea
monica
poet
brea
impul
adoptarea
existentei
constitutionala
lideri
##mari
##onalitate
imparatul
clientul
teoria
structuri
inregistrata
intregului
ierarh
citeva
mg
jack
creeze
politicii
##minti
finantat
dizabilitati
185
promoveaza
permi
formularul
agenda
aplicata
vremii
adolescent
##iculescu
cumparaturi
monument
##alizat
fant
preca
toader
##gariei
israe
lov
viceprim
reduceri
imprim
articolele
1995
impun
alum
ardea
##pate
literar
##dire
travers
led
viorica
statistica
##unit
selecti
modernizarea
##am
bilet
sarcini
didactic
oportunitati
specii
cunoasca
sava
elvetia
povestile
proza
vantul
anterioara
comitetul
primarie
asociat
##rezi
goale
ilf
##oreste
intuneric
caini
##ziv
belgia
seminte
##zan
turc
retelei
transporturilor
completeaza
intelectual
##oliul
constient
baietii
frantei
supravietu
unitatilor
##mata
ext
mentioneaza
incredibil
texte
starii
##raliz
factura
indeplinirea
ochilor
##iteaza
##opol
consumului
rupt
regulament
oarecum
producatorii
pacientilor
plange
##arna
planului
locuiesc
comunitati
unu
costuri
corup
asociatii
demonstreaza
infrastructurii
dorea
lucrurilor
aprecie
italian
tratat
nica
principii
prilejul
stirile
ameli
##strii
impozitul
barcel
telecom
extinderea
##rosi
##ies
replica
alternative
raspunda
##coana
prag
indemana
granita
tea
semnata
crucea
##mint
bauturi
##masa
sistemelor
##jan
downl
##gurat
incercand
aborda
exercita
retras
sedinte
##18
exercitarea
jiu
actiunii
##oaia
capatul
##lip
patrimoniului
indreptat
propuneri
sportului
taina
monta
expuse
viru
##stante
pant
arena
produc
asociate
investitie
##ranta
efortul
moale
aflau
parintelui
pregatita
trecutul
micha
chimice
orasele
nenumarate
##rmat
minuni
terapie
atacat
reta
contradic
##fund
trimit
##olei
##hip
madrid
sarit
disputa
capitol
colegiului
candva
genunchi
viziune
apartamente
foame
targul
normale
fali
elegant
proaspe
##ingul
cuvantului
investigatii
fetei
##stratii
ciob
tram
##indeni
sfera
predic
tranny
reprezentantilor
pedagog
instant
sedintei
filiala
desemnat
dumnezeul
jumatatea
##vala
detaliu
dansul
libertatii
concrete
hu
magazinele
pretut
umplut
##spru
denu
##rmar
competitiei
rm
fabricat
activeaza
##wood
concluzie
may
startul
suplimentar
numere
dragos
ial
mora
hepat
vedeta
##mal
##15
mah
oche
spuneam
perse
presiunea
##ject
antrenament
94
calat
tipurile
asiatic
bd
##mana
ramn
identitatea
impusc
##latura
turismului
aleasa
cunoastem
cast
washing
unit
artistica
povesteste
porni
##icot
interzis
hidrat
construite
multip
##ick
continutului
igie
inregistreaza
egala
urechi
recuperare
##yer
normative
##arelor
industriei
periculoase
localitatile
inceperea
regionala
##odoc
iliescu
sebastian
directe
veget
bulevar
campioana
az
sesiune
od
frunte
emise
perchezit
beton
kilograme
##vici
dil
suspect
reint
decedat
muzical
parchetului
##sty
turneu
sunat
pin
utilizata
fiului
siria
rasarit
sel
mega
infiintata
reprezentantul
gel
suficiente
filozof
recomandam
park
biru
neamului
locurilor
initiala
lasi
apelor
masurilor
ira
daun
reconstru
##sare
cupei
reduse
privile
##tism
cumul
obligatiile
pornind
hectare
pofta
vindeca
budape
formele
vital
mostenit
rural
externa
legenda
gandire
bunurile
cp
##garii
locatie
puneti
stagi
cuptor
culturi
covasna
impline
progres
bloca
medicilor
##zer
serban
promit
lacul
etichete
##itter
##neasca
pretutindeni
alianta
##17
iran
bolii
congres
enorm
tramva
incapa
##orde
cercetarile
oprea
volume
scoata
intrebarile
rezista
bas
imobiliare
cuza
litere
temporar
rate
full
hotarari
necunosc
despart
castige
pastrarea
regiuni
##kov
##ozitatea
feluri
repa
trez
proteste
bazata
vechiul
creamp
eroare
##dale
infecti
agra
##gs
bacalaureat
trimise
clo
##dari
olande
hainele
pib
##rman
montana
##vinov
900
participantilor
inspiratie
purtatorul
afacerea
clientului
afectat
piesele
qu
furnizate
##uarea
ono
transmit
##vian
dependenta
palatului
manastire
simul
lati
##hot
ocro
perspective
cucerit
amandoi
obe
aman
imbatra
spalat
gandeste
galaxy
dodon
talent
fanii
echilibru
domina
evolutie
incheia
ustu
rochie
sanitare
pilot
rutiera
obsta
sansele
turistii
##sport
sportiva
duhovnice
dezvaluie
##zatorul
autoritate
##metri
usturoi
1994
##bilitatii
oana
hotararii
basche
##pare
brazil
intarzie
##arati
consim
statia
if
platesc
carb
onu
minut
fasc
similara
legislativ
nepre
alese
filiale
polite
bogate
intitulat
ortodoc
que
avocatul
handicap
dunare
daune
capata
schimbarile
legaturi
atelier
gazdu
inmorma
aflu
gestionarea
##turi
ascen
##ctorii
icoana
anve
desparti
liturghie
93
transni
procese
instalat
suficienta
concurenta
alp
nap
dezamag
cristi
candidatii
laborator
distruge
##asca
traducere
santa
rastur
##steste
emisiunii
rid
bolilor
##steasca
curie
toma
muzeu
##tarile
marat
refer
some
campanii
##burg
certificat
##vaniei
aprobate
scriitori
tratamente
marfa
aparute
prezentului
##vina
diana
ranit
studiat
verificarea
garda
adolescenta
potentialul
concediu
tratarea
scuze
imprejura
baiatul
rese
clinic
##mirea
moneda
simptome
potriveste
sanctiuni
aducem
japoneza
linistea
proprietarul
corpor
programelor
conducerii
inclin
capti
transferul
protejeaza
subte
deseurilor
bank
michael
##zarilor
gasite
sic
reglementa
cutremur
imbracat
reglementare
manifestari
aspectele
deplina
tableta
durat
controlului
felicitari
willia
aroma
pate
aseara
absorb
impuse
alarma
bulevardul
epui
termica
##sol
executat
##zinte
materialelor
ierusalim
invatamantului
batrani
fundatiei
dovezi
##80
artistul
striga
##22
iancu
reactia
ritmul
##19
##atar
##oniei
soma
adoptata
plimbare
stinge
pachetul
inlatura
literaturii
famili
bomb
avantaje
clip
league
##cole
relevante
simult
inchisa
ilfov
cunostintele
paza
preparate
##marea
accidentul
##ueaza
iulian
sorti
##16
infru
##mura
conduc
##pon
servit
pregatesc
unora
ochiul
agres
marina
pagu
martin
achizitionarea
dinainte
clasele
tarilor
##ritiei
monitorizare
procurorilor
ingrijirea
copie
##icului
adi
diac
indire
train
hardcore
let
raportului
##anga
doamnei
##40
##siunilor
grame
oug
##ning
specializate
##ntiei
botez
hiper
timpuri
twitter
##univers
piarda
actorul
dimensiune
gandesti
maghiara
hoteluri
avere
##ping
recunosti
minima
sentimente
agenti
alimentatie
semnatura
cautam
realizare
argumente
autorului
mame
##rila
liti
hran
investitiile
mamaia
infractiunii
strategii
aprobata
cala
stro
energetica
nasterii
tir
##easa
rad
imbolna
suedia
##menele
bancile
supliment
opus
##gie
##via
cereb
nevinov
pah
kove
fotografiile
dri
blocat
finante
samp
adevarului
eco
protectiei
##hal
bucovina
adjunct
alatura
judecatoresti
teleorm
serii
matrimoni
eforturi
numesc
##rtii
intentioneaza
cauzele
detinut
130
pornstar
domiciliul
alexandra
##ous
recenta
finl
domnisoara
artei
turistic
savarsirea
hil
universitare
arde
opinie
##ders
##hel
kovesi
##ceau
combina
opozitie
jazz
bataie
normativ
anat
expozitii
tii
incalcarea
colorate
laud
##sitoare
aditi
moise
140
depunerea
reparatii
insemnat
brad
inchip
raspund
vechime
##lurile
creampie
lenje
vandu
delegat
sculpt
minime
ciprian
actualitate
orga
recti
pussy
miscari
producatorul
grupe
confortabil
inga
operational
dicti
ceram
versuri
acelor
selectati
reabilitare
departamentului
stadionul
reactii
medicament
traficului
##chii
crima
cantat
supune
treime
suveran
cetatii
republicata
prestigi
judecatoria
postare
zgomot
scape
trist
frontiere
##oo
nuante
moduri
ruta
##ventiei
strica
mitropolit
dema
recomandari
abate
urmarire
bautura
fiinte
lant
raniti
birouri
politicieni
opta
##sabile
alineatul
panto
##vitatea
premium
##dian
consiliu
asimil
cladirii
rade
consolidarea
neco
responsabili
germane
permita
salut
debutul
##ician
anoti
hr
cca
neobis
imigra
jose
alfa
suportul
ccr
pestera
##stari
edil
erotic
casatie
fenomenul
asian
vicepresedintele
ambulanta
anuala
entuziasm
taxele
evoluat
esentiala
casatorit
anexe
##rete
dezvalui
ko
citesti
focsani
anotimp
mita
divort
viitorului
mintii
##virea
pensi
precip
##sabil
##reta
stam
minunate
##ings
##beta
##ziere
soferi
poetul
##cescu
##parla
sei
coordonat
manu
grama
instalarea
nepo
seamana
raionul
japonez
poiana
productiei
primirea
patrati
sustina
slaba
comenzi
creierul
pantofi
capete
intamplare
digitale
accesibile
##stiv
##onand
ete
expertiza
desfasurata
organizatiile
finale
arab
coasta
depre
comisi
##cre
prota
urmata
incercarea
gorj
rich
originale
buze
##stel
lansata
##unic
bnr
##ilia
##unzi
gravi
##omat
jurnalul
prun
luand
lega
personajele
dotat
intalnesc
##sate
##60
pante
discursul
pisica
sportul
sufletele
dovedeste
clasamentul
delta
minciuna
regasesc
##zita
game
biza
ramase
##ntitul
barcelona
biletele
studiului
chelt
muzicala
cior
lasand
bos
autobuz
war
sosit
alun
best
contrar
dinamica
##cd
congre
##gala
porta
##ghita
bazate
bugetare
sie
##mantului
consideram
sustinute
usl
reciproc
##chete
episcopul
raportat
apreciaza
horo
define
oboseala
##zandu
imbunatate
sanitar
reabilitarea
pantaloni
oaspetii
jun
rapide
bag
##────────────────
romanului
distractie
ui
canal
budapesta
accidente
zilnica
download
cumparare
plut
center
putand
aceluia
##14
ah
igor
restaurante
platfor
distrus
simtim
ier
nevoit
conferintei
metrou
ivan
facuse
situate
celulele
completat
veniturilor
regret
pasari
aug
cardio
obligatorii
pierdu
posibilitati
anuale
cuprinsa
teritoriu
dezvaluit
##pet
vil
verificare
reorgani
##ory
gast
motorul
deopotriva
dimitrie
documentar
##stig
afli
wta
frau
pum
spunand
revolutie
##ingea
##cheaza
script
serioase
proprietari
integrarea
##mba
exemplare
suprem
demonstra
renunte
designul
pusti
pranz
bazele
160
cauti
atle
##sing
morale
sandu
##venita
harul
##ulare
porto
pacatele
intoarca
inaugura
catedra
unghe
grafica
bancare
frat
peni
##mor
##dus
manuale
##cy
celebrul
obiectivelor
inn
curse
organizatori
fotografia
placerea
renov
semnificative
preasfi
exploatare
varietate
decla
cautati
categoriile
provine
ascultat
ut
info
colaborarea
stari
testament
eman
urmarea
milo
##sez
ofertele
intimp
previzi
life
proaspete
finele
ridicarea
dog
pastreze
vestea
ateliere
concertul
cheia
preia
italiana
slova
personajul
cosmetice
procedurile
contractelor
arse
standardele
griji
zilelor
##resti
oferita
scumpe
modalitati
caute
tratamentului
condi
autorii
unel
mark
consilierii
caracteristicile
procesele
turneului
informatica
patrimoniul
specul
confera
benzina
##13
pica
lact
promovat
prognoza
##von
##varea
contemporana
##itorului
##ilie
110
##cic
preturilor
acoperis
beneficiat
germaniei
combustibil
publicarea
clase
cio
restran
inteligent
cori
##cirea
##sula
emisiune
portul
##umele
##bie
supuse
platite
concursuri
ceremon
actelor
alesi
religios
aseza
mir
ass
localnic
premierului
lotul
ecranul
deni
isu
implinirea
porumb
meciurile
functionarii
iorga
inevita
extinde
##ction
regulat
senzatie
orchestra
##gos
fitness
##venite
ceata
##uch
##jat
instalatii
garanteaza
globala
lamaie
statiunea
distribui
diamet
grasimi
sanii
duhului
##cm
portile
consiliere
boa
studiilor
stadiul
judecator
senat
digitala
sentinta
pompierii
fascina
##fin
finalizat
educationale
aluminiu
capului
##vul
arie
nevoilor
salvat
##ficile
valabila
virtual
ambii
transilvaniei
udmr
##bai
##hul
comisie
jandarmi
trecem
scriitorul
sunet
raft
fecioara
baschet
asas
cotro
##geni
utilizatorul
marime
impresionat
marimea
subtit
intelegi
##oman
profesionali
intregime
tune
aparatului
constitutie
povestiri
with
reprezentata
incepem
creada
valeriu
constitutiei
##oterapie
##zatori
##vod
indragostit
pariuri
expresia
confortul
operator
recic
bleste
becali
instruire
emotiile
pescuit
uriase
organizatiilor
dezbateri
spatiile
destinata
miscarii
depozitare
obisnuita
calificare
tehnologiei
merce
opreste
pasii
terenului
persi
##cineva
cunoscuti
carca
sugereaza
##ficii
##neala
recomandata
rula
cauciuc
##dox
acredit
scaunul
constitutia
nadej
organelor
adapost
##stand
admitere
nefiind
scru
investitiilor
contribuabil
debutat
identificare
degetul
incalta
recunoasterea
nicole
alu
plecarea
porc
tinute
##rmarket
medicului
documentare
pacientul
dragut
descrierea
enume
generalul
altcineva
cardia
jocurilor
anca
calendarul
comunismului
pomeni
##ston
confisc
contemporan
depistat
udrea
##aliza
uk
clasei
bucuram
suspici
cancerului
geni
dificile
urmaresc
ziare
protejarea
prabu
##riala
masline
expresie
reie
slabici
universal
lucrez
predi
locatia
deteri
workshop
primesti
blaga
biserice
coree
ardele
fugit
kit
piciorul
##stein
necaz
uiti
sportivi
limbaj
extreme
rurale
judiciare
##manta
revolutia
porneste
cauzate
washington
darul
expozitiei
##gy
energetice
incorp
discipline
relat
propriei
europarla
revolutiei
simi
dobandi
comuniste
eligi
douazeci
handbal
ster
surprize
imagina
calatoria
lingura
bibliotecii
##balul
diabet
protejate
protagoni
intin
ceasul
caderea
##diate
plans
unire
relaxa
valorii
legilor
periodic
prezentam
emotional
jandarme
sapun
venirea
ziar
ambasadorul
drama
revel
##tati
glas
##boli
##mia
rind
grau
domeniului
##dal
inchirie
strange
##bii
defini
largi
maru
utilizatorului
comercia
norme
peretii
clop
imparatia
calm
antioxida
designe
cifre
fructele
benzi
##arii
compozitia
nevoiti
padurea
bumbac
meniul
retragerea
celorlalte
explicatii
regatul
provocari
pierderi
controvers
##darii
tulburari
imprima
tama
canalizare
acoperire
resita
lucram
desprin
consecinte
horoscop
cus
mireasa
termenii
imaginii
luptat
clipe
augu
danie
alimentar
eroilor
accesat
costum
bolnavi
temperaturi
crestinii
mandatul
rup
chestii
domnit
prietenie
aparitie
inaltimea
echipament
##zic
caracteristica
sfar
vandute
straina
etaj
complexa
prevenire
autovehicul
premiile
solutionarea
pregatite
##titud
##gin
dezvoltate
toale
coreea
##cla
logi
marine
respectul
daci
##hiat
judecatorii
specializat
grosi
castelul
interpretare
tinea
lucratoare
lezi
adusa
individ
competitii
rani
##mini
jura
uriasa
invitatii
florile
chestiune
lungimea
satele
robu
consecintele
abilitati
automobile
originala
managerul
gras
creative
forest
apropiate
ferti
achizitionat
retrage
zodia
invatam
buzunar
directi
blonda
originea
cosmin
miliard
dizol
capacitatii
##cob
caras
sesiunea
##25
abilitatile
lectii
aleaga
vese
infatis
luminii
placute
##cei
power
dificultati
reparat
laptele
modernizare
hel
ridice
##lati
intereselor
1993
moldoveni
spor
incarcare
sece
##siu
lucrarii
podi
cablu
politist
##orita
turda
ucrainei
diaspora
ritual
legitim
##latina
plateste
buletin
modelului
anumitor
izvor
plec
fundal
stanescu
justitia
curatenie
incend
secundare
cavale
tensiune
prietenilor
salata
etn
conditie
rome
bale
descoperirea
generatia
stanci
sfatul
##osului
teleorman
agro
ampli
administrator
bucurestiului
##reste
metodele
asistent
grand
vazand
manifestare
mes
gr
liberi
dand
##oe
bratele
interesate
noutati
condamna
uscate
goi
fierbinti
gb
mestesu
asfal
ly
expertii
ordinului
adecvat
constantinescu
##stena
scrisoarea
dej
interpretarea
preparat
##hon
##uind
semnificativa
realizeze
pav
##ilian
intemei
bijuterii
amenajarea
asteptare
zicem
350
scal
scola
automata
cinste
proport
astronom
utilizand
suspendarea
videoclip
insine
##listi
lugoj
procurori
1940
reproduce
inscrierea
avionul
##onf
candidatul
inot
cercetatori
sarcinii
##kel
bolile
regizorul
cutit
imediata
peter
hotelului
printul
traditii
anime
emp
nazi
dezbaterea
colegilor
food
sergiu
aler
neu
insotita
relati
descoperite
propaganda
##tar
sefului
spont
penis
interim
limitat
locuieste
independente
lg
infractiunilor
traiesti
varst
casnic
menstru
mergeti
vitea
intoarcere
nava
usi
cerintelor
solutiile
revend
strategic
miezul
precizati
app
stimuleaza
like
citeasca
apasa
emotie
fenomene
latura
proiectare
confu
asociere
pacea
joci
discutia
##ciune
inteme
stram
mandatului
piete
realizarii
##gram
defect
cercetat
rezidenti
sms
cerinte
ciolos
implementare
reform
cazino
nascuti
##nac
lansa
vinovat
destinul
##veanu
apuca
reput
psal
mariti
##itas
inspre
salvare
resim
senatorul
reflect
##pii
punea
iluminat
##tarilor
exemplul
creierului
extins
incident
##sarea
natiunilor
mantuitorul
amin
##dez
verii
motocicle
transmiterea
afectiune
##verna
scazuta
##arata
##otica
##vare
elic
impra
nerab
##uneste
prabus
##opi
turistica
pasageri
liste
consimta
##ogan
orban
descarcare
##old
pacatul
termenului
ortodocsi
##puta
sentimentele
ploi
dula
galeria
tact
##cus
serioasa
##zatii
auton
imensa
respectat
juniori
exprimare
efectuata
absolvit
proportie
descris
tube
strig
aranj
secretul
mater
##rvi
##ico
dasc
milita
utilaje
personalizate
sofi
dimensiunile
turnul
##oveni
transportului
venetia
ungheni
manifest
achizitia
bagat
urmeze
testat
cartofi
dispozitivul
##dulescu
##dentale
comunicarii
sut
criteriile
termice
vanatoare
centura
anton
divina
vizitatori
doctorat
intelectuala
periculos
ere
universitati
poarte
avansate
paradox
##ntiile
operatorul
simptomele
fizi
bugetar
##zesc
suprema
avertis
tehnologic
sop
adaugati
ministri
simboli
floarea
vesnica
iri
acordata
folosinta
intample
salvarea
lipsei
revoc
limbajul
##uiau
directiva
coinci
onora
rezolutie
ciclul
urias
otra
ambasada
deplasa
dorin
alimentelor
centrele
nefa
credinciosii
spuma
##far
oral
politicienii
australia
dovedi
sprijina
##zech
duble
box
tinem
catolica
adorm
##med
meri
contractele
alimentele
dispre
nervos
lau
intamplator
obligatii
bronz
industrial
##atch
admira
sinta
genereaza
cadrelor
proprietar
prelucrare
fixe
octavian
autoht
riscuri
opinii
predare
afectata
amenzi
proiectat
training
preluarea
pachete
diicot
neconstitutionalitate
cote
nins
pert
week
medite
factorii
##hos
muie
doctorul
scriitorilor
display
biblia
servi
fortat
opere
istoricul
lacrim
next
veterin
##lix
volumului
ialom
oficialii
refor
frank
1944
teologie
ionel
suprafete
demo
implementat
##way
sustra
impute
marcel
prealabil
aga
fagara
server
numirea
coborat
beat
calorii
word
nele
operei
dinu
ferata
##now
santie
formate
floare
luarea
structurile
farf
gazelor
pasta
this
##gel
distrugerea
procurorului
tovara
fcsb
meseria
proprietarii
dificultate
##til
limitata
livrarea
##onara
##orn
democratie
oi
tigari
obiectele
tava
nt
aprovizi
invin
tanase
radacina
doare
##job
sfantu
judeca
##sete
single
pietele
saraci
enescu
intreprinderi
transformarea
pdf
impiedic
sponsori
##pata
tenul
puti
elisa
etichetat
##stria
ingredientele
percepe
presus
vorbea
norocul
diferitelor
##fit
partilor
administratorul
ipj
precipitatii
##eri
asista
meciului
durabila
castigatoare
proporti
razboaie
intarziere
brune
neferic
admis
atingerea
dara
accidentului
nuanta
incuraja
intrarii
##work
cotroceni
suspendat
coordonarea
transporta
##icultura
intensa
##inelor
monitorizarea
love
prescri
efica
cadrele
semif
controla
vanda
trecand
dotari
dezastru
##cui
##bby
holly
recunoastere
esec
atributii
dracului
inconstie
incoace
##resc
regene
ambit
wiki
destinatia
stocare
interpret
agresiv
zambet
review
profilul
maxime
lingurita
##ts
oportunitate
feed
eticheta
##ghiu
mental
vir
print
agricol
profunzi
scoase
##ruta
neastept
gine
##neg
green
doband
paradi
##cher
pacientului
balti
incheiate
inmul
contemporane
##ux
temperaturile
crei
prefa
imunitar
ventil
sarbatorilor
religia
ratat
amenaja
moaste
incolo
personalitatea
##wei
necunoscut
frigider
##inca
##seu
habar
psihiat
##alau
pozele
vietile
sustena
mersul
##niei
achita
##andei
roaga
##onist
iubesti
menite
episodul
ix
informatiei
deficie
##stent
echilibrul
coruptiei
primita
obligatiilor
pereti
matern
afisate
impartit
##cturi
sage
compromis
accesului
desfasurarii
afisa
curge
proprietatile
autoturisme
navig
vadu
raluca
filmat
comunista
accesa
regala
locuitorilor
raspand
parlamentar
restaurantul
conectat
patriarhul
viet
expunerea
ima
simultan
operatie
marturie
inlocuirea
uscata
dolj
motori
##000
##sabila
tineti
fotbalul
solicitate
trotu
faptelor
finantate
avantajele
##sting
ungariei
epar
intestin
vinul
moderat
certificatul
evidenti
mirosul
indivizi
james
judecatori
minimum
gandirea
##belor
##deni
cuvine
##uli
intretin
urmele
mena
calitatile
eti
recuperarea
sna
sovietice
iuda
promite
##onarul
sovietica
##zeste
##inet
##iasi
inventat
pisc
regiunile
inculpatul
frustra
pist
faga
anchet
stimularea
buche
accepte
programat
ampl
##rov
recepti
avram
braz
adunarii
jurnalist
catal
ramb
ungure
tiga
considere
cererile
migra
teritoriala
dragul
fashi
tematica
cancerul
inedit
modalitatea
obisnuite
reca
suparat
rurala
aranja
responsabila
gramada
decorati
listele
##rioasa
step
fos
preventiv
nasaud
uniri
puterile
##beaza
simpozi
fante
trimita
acorde
sah
plimba
tendinte
ofen
##pea
ini
lectie
coleste
##seau
cornel
neferi
marcheaza
procede
cora
raspandi
wo
cititorii
integrare
aparitiei
scriptura
look
##teste
discutam
##ourile
specialistilor
beneficie
jurnalisti
nerambur
imperiului
volan
bbc
##ming
bucataria
relatiei
capitali
pompieri
exces
fidel
deseuri
tranzacti
limpede
treci
apropiata
imperiul
osp
legen
masturbare
setul
bisericile
apocali
urmariti
egalitate
matur
obiceiuri
asigurati
##reaca
primarii
##starii
aude
zu
incerci
dens
carbon
moc
urbana
merc
infect
medalii
munti
flui
iorda
vila
soca
##irii
yoga
##sezi
probele
81
divizia
ateri
creier
dezavanta
liniile
##orarii
preferata
denumit
banat
lut
secretari
##ntara
actionat
tho
negri
##rog
asigurata
reading
cazurilor
guvernamentale
repetate
chiria
dama
gimnaziala
inconjurator
pura
pros
##dentele
batrane
abordarea
hotare
blocuri
cardul
##diile
aplicabile
##boreaza
geanta
intreve
emotionala
antibi
piper
decol
##fele
partii
daniela
judecatorul
##chen
inveti
elaborat
parohia
vremurile
instin
imbracaminte
cord
##uu
curios
egale
##heaza
incarca
jertfa
##23
intretinerea
tudorel
facandu
##ratiilor
obtinuta
reclam
mecanism
semnate
colectare
pacient
##niuc
permanente
artista
salariilor
lap
conducatorul
adevaratul
duci
riscurile
salariale
fixa
ger
deschid
revina
soferii
imbina
recurs
##universitar
##clor
adecvate
christ
125
##urarea
optima
street
demarat
propunem
##70
atacuri
trupei
imn
trium
##arch
justifica
trip
politistilor
curatare
recompen
scenariu
miza
barbu
inscrise
alaturat
mijlociu
durerile
schema
statie
audienta
muzic
vatra
timb
profesorilor
propor
emisiuni
portugalia
inserati
insolventa
inspira
vap
metaboli
##ding
##ode
##hnica
copilariei
alcatuit
tentativa
atacul
indepartat
pretului
tim
canalul
##vitate
mesajele
rutina
pricepe
venitul
poker
biciclete
lady
procedurilor
harti
fia
ct
garde
colin
##oade
forti
chineza
deschida
inchiderea
inving
absoluta
ilegale
##ctoare
sectiune
linistita
trateaza
acoperite
##dim
profesoara
pne
ye
vizual
numite
conduca
centenarului
dosarele
proviz
ios
primim
furnizori
credeam
partenerilor
determinata
preotii
depunere
acade
nul
maca
afp
ramnicu
surprinde
##ctivi
##bama
augustin
neuro
altern
insisi
invitatia
suspendare
inze
moare
##ratul
gatit
##out
##tv
conventi
albastra
segmentul
guvernament
confidentialitate
implicare
modificata
anghe
##nel
cy
ocazii
vinuri
inteligente
incadreaza
controale
##riori
formule
avantajul
mijloacelor
coere
##fei
vase
ute
usb
critici
integrate
partidelor
rig
psiholog
etajul
##parea
asemanator
intelepciune
afacerile
indrag
bie
autos
barba
ote
pocai
oltenia
##ziva
zilnice
sn
soldat
timisore
surprinzator
albumul
decizi
munteanu
pesti
nicaieri
rochii
apropiati
interdic
spalare
dunarea
##sind
regiunii
recomandate
aq
pelic
locatii
independentei
smurd
culmea
scar
simbolul
barca
alocat
aceluiasi
depusa
psihologie
consultati
statii
colecta
asumat
doina
angela
##birea
recre
##funda
strazii
magic
cree
recur
consemn
raspunsurile
gluma
exercit
cil
uimitoare
testul
stransa
folclor
oscar
vedete
evanghelia
corneliu
campionilor
teritorial
atingere
sinteza
##gele
cantece
orna
vred
cumperi
intil
termic
sefii
parcului
##uck
datorii
curente
rasc
slabit
cursului
consilierul
laurentiu
umor
##orescu
muschi
influenteaza
1945
pornire
day
imparatului
manance
candidatilor
inimile
cluburi
incepi
trupului
sediu
mole
igiena
##ichi
lipsita
##onditi
times
inginer
metrop
doc
##umi
castigator
diabe
intrebati
grafic
iordache
raspunderea
##ratorii
colum
##merit
170
ciuperci
urmarirea
indeplineasca
orange
stins
scrisori
##marca
intins
##ovo
panza
contraventi
incompati
impozitului
brazilia
varstei
atenta
bucurestiul
sesizat
constructiilor
intalnim
minori
titul
##ac
societatile
primelor
gog
computer
tricol
sigure
##menteze
gangban
spiritului
arc
sursele
adapta
sumei
construiasca
functioneze
##ilat
jurispru
##roza
faceam
jig
rosia
atraga
protop
fibre
pasc
carierei
inovatoare
##lion
cafeaua
protestata
zdro
##wi
cauzei
eter
rude
los
certificate
avort
paduri
interpretat
subliniaza
gy
sky
asigurarilor
##alta
marfuri
##kom
universala
vizibile
insarcinata
vindecare
fig
##ofii
crizei
cadea
cinematograf
trebuiau
familiilor
##nelor
artistii
conducea
regla
vizitatorii
consilieri
mitropolitul
##ges
teorie
mangalia
sebes
vama
frumosi
intitulata
reaminti
loi
indreapta
##ureaza
majorarea
slobo
dobanda
diferente
incercari
considerabil
##90
presupun
##replica
operatorii
povestesc
scazute
##vu
share
berbe
atributiile
stresul
analizat
orar
##nce
tribunalului
imbrati
salonul
niveluri
actorii
drape
dorita
pomen
judecatorilor
##lete
respinsa
##uratoare
talentul
amprenta
suplimentara
regale
impozite
puncta
internetul
califor
extrema
hagi
phili
predom
linga
cartilor
ceo
satisface
patul
trepte
golf
incluzand
cereale
simteam
etica
amar
integrala
furnizor
apartamentul
operatii
colective
rezolvat
##oth
maramure
depart
zam
gigi
batranul
incetat
cari
danemarca
universitate
spart
##oram
index
exterioare
babes
contului
trimestru
semnarea
vra
##ctivitate
indeplineste
ford
ocupe
plecati
nev
coltul
intersectia
olimpice
##mena
##rind
mentionata
fib
anularea
tacere
tutun
avioane
egipte
posibilitate
mars
adoptate
semnele
democratiei
##tesc
rezistent
victorii
simboluri
costurilor
anx
impodo
compozitie
alimentara
musa
vazuta
fierbe
cec
nostal
zboruri
organul
abstra
variaza
multumita
jurnalistii
##jo
##ctiune
inferioara
esu
textele
noteaza
##fal
ascut
##olii
183
balan
pole
totale
umbre
stirea
primire
nova
verita
produca
academic
lent
icon
goala
##ziunea
imm
revenirea
renaste
formular
ofiter
radulescu
obstacole
corina
105
egoi
petit
##sius
panica
fani
sefa
coordonator
tg
abe
alocate
beneficiari
plahot
raut
operatiunile
camasa
doctrina
deve
copac
repetat
prevederi
relie
intampina
ips
##fra
inst
mercedes
paturi
consumatorii
mariana
albu
individuala
bunicii
perchezitii
inlocui
niciunul
chema
gazduit
gind
transportat
zicea
ramai
depaseasca
##rance
##þi
folcl
exterioara
ordinii
trupele
nori
furtuna
zici
hollywood
bud
sondaj
patrulea
colegiu
leje
conturile
violente
putinta
##dil
nik
beau
axa
temporara
amplasat
ardei
return
incetarea
ingeri
conge
descopere
vizate
ingu
sesiuni
umid
soseaua
refe
avizul
sepa
vechea
firmelor
canale
siteuri
prostit
##zive
precizie
nerespect
##lita
inco
petrol
##unei
ghidul
popula
momentan
##itand
istan
dermat
germani
benefice
greco
munci
contributie
##ceut
perfecte
strec
evitarea
puf
apasati
aure
cititori
##liere
farmacie
palma
detinute
brata
francisc
salu
fmi
promoti
music
pmp
pand
##hu
scandalul
corporala
receptie
##ee
sucul
consumat
futut
##ient
##prind
cc
delicate
eru
supran
nelini
riscului
omenirii
credinciosilor
indeamna
teritoriului
##onei
urbane
fiert
socio
varza
corespunde
figuri
croatia
cerului
##olf
pira
directii
istanbul
pensiunea
zisa
##diei
programata
blocului
marit
inchiriere
solo
iern
identificate
directive
specializata
gospod
iord
investitia
##gureaza
posesia
copaci
inra
autorizat
instagram
programare
sle
barla
dintai
suprap
experientele
tuburi
inghit
sort
niman
comunitatile
tech
capabili
prezidenti
apartene
urmati
evolua
preuniversitar
umil
umani
temele
##ст
rezerve
flash
extraordinare
##utive
indeplinit
domnia
emotiona
##omir
eng
faltice
nimanui
repet
high
particular
mucenic
interzisa
radacin
##vaz
exploatarea
basarabiei
sotiei
##mus
deces
voci
universului
parlamentari
dobroge
your
celulelor
greaca
neputi
##aret
##term
ganditi
dana
taxei
ferovi
coaja
liberali
##oroci
spaniola
##umati
##functi
obama
briga
abdo
baile
mananci
##cteze
identitatii
intram
deodata
tabla
plangere
rigi
rusesti
##wn
padurilor
voievod
squi
recunoscute
acne
aplicatiile
opreasca
amend
stanca
mantuitorului
peisajul
explicatie
plahotniuc
elita
salon
barie
comod
##chim
capitalul
daruit
lipsesc
hipe
usile
dintii
fiintei
##ray
##lier
kiev
valabile
frunzele
fashion
sof
pamante
##fone
ambiti
functiune
numeroa
corespondenta
xviii
##hat
omen
##deti
victimele
spectaculos
critice
vulcan
publicatii
recunoscuta
cunoasterii
##meste
iveala
centi
marci
automati
##oriul
has
citata
machiaj
avansat
intare
muntilor
barbatilor
clasament
dormi
bilate
##uters
calciu
directorului
ken
armonie
tratate
randurile
haina
propriilor
venind
lore
bomba
coz
operatorului
aplicarii
bare
interimar
asteptarile
zambetul
continuam
gangbang
posturile
caseta
inscrisi
viteze
generate
prede
consumatori
stiintei
divertis
catastro
caile
uneia
##scular
imaginatia
##ierele
##kh
vizitati
copt
##dierea
margine
ghita
regal
absolventi
nemi
lansate
platiti
##ricos
duhovniceasca
preluate
##guverna
adancime
determinarea
falsi
costume
concurentei
browser
postura
curati
neuit
tribuna
moldoven
conving
arest
existau
metalice
dov
mergea
minus
carag
acelei
##diere
radical
ocazi
##minare
deciziilor
zvon
targului
comunitatilor
aux
##zeasca
globale
stomat
fune
pericolul
petrecute
reusind
##inari
introduse
neregul
mia
memora
obisnuiti
estetica
tha
cateodata
##hin
sufleteasca
##alizate
iacob
vizat
eur
##orter
gestul
reiese
derulat
produsa
administrativa
marcata
##los
comma
resort
opresc
harghita
aple
ambal
basarabe
cladirile
maie
spectatori
terminarea
eliberare
relevanta
##ritati
##cuno
##leze
cadav
demisi
intocm
constituirea
##hedi
reuters
expedit
spectaculoase
proceselor
dezamagi
##ienta
##rcul
stabilesc
impresionanta
feb
norvegia
tast
lunile
diferentele
porunca
victimelor
pata
variate
gasita
prele
alegem
comertul
momentului
predisp
semen
plantelor
##roni
proprietatii
configur
human
intelepciunea
dialogul
##reau
anc
lupu
tiche
arist
##ku
tensiunea
##rme
selectia
caragiale
1948
##omite
hotarire
superb
##smelor
cardiova
##beste
disconf
voluntar
descura
mister
##oreze
comedie
shi
mingea
##onice
##urare
ciudate
realitatii
muce
oficiul
fratilor
vorbesti
##pite
particule
curc
zadar
mincin
fondator
##ford
subordinea
stiind
prefectul
stramos
bang
vantului
simion
##rial
franceze
win
##iner
scrii
nasul
##alele
umili
ating
debuta
matura
##larii
baby
recunostinta
traditiile
smeren
textului
sarbatorile
criticat
protocol
pediat
painea
martor
accentul
barbatului
monitorului
##pes
##rote
##fida
somnul
##ty
camb
destinatii
stire
##usului
sfint
mint
functiilor
##useni
##nisa
rezolve
leon
serialul
izolat
transforme
fiii
##stesti
devi
precedenta
pusi
dezech
marcate
erori
puternici
profunde
disparitia
cehia
wirele
microbu
robo
##ken
irak
plaf
zise
intoarcerea
privim
metaf
indelungata
estimeaza
##pale
tudose
lav
atelierul
imprejuri
##lalt
binecuvantarea
mantuirea
interfata
executarii
stiau
1980
dezechili
ramburs
##anari
misiuni
##sex
consistenta
prec
colectate
examenului
solare
##stil
creatia
##osebi
traducerea
grab
urss
rebe
mentina
esa
orientare
##odor
datorie
nerespectarea
angajeaza
doro
gin
volei
conflictul
fisier
wireless
urgente
##cepti
indifere
rose
petreceri
grupurile
aplice
revolta
adresata
furnizorii
##gian
extras
voua
ceramica
premiului
creanga
denumita
ty
fli
califica
proto
gad
indeosebi
verificati
aferent
##iam
alerta
dc
numerele
agentul
calculatoare
masinilor
strigat
stabilitate
necesitate
dotate
mehedi
particula
##versarii
dint
elementelor
sfintele
virus
convor
supusa
bir
salbatic
##ctu
mics
salvati
feti
patrimoniu
dispun
apelul
oportunitatea
competentelor
costi
datorate
squirt
cenzura
dosarului
achizitionate
bapti
##ntine
smul
occidentale
extrate
ploua
pelerina
fabrici
macro
intalnirii
##kia
societatilor
fragment
##stite
portofoliul
##gula
scolari
monstru
sotii
primara
##27
plasat
capc
##itorii
eliminat
alapt
phot
disciplin
auri
##box
insotite
ialomita
protejata
poetului
##stente
compusa
agat
##°c
terte
taxelor
cercul
##zite
noci
mure
##room
room
shopping
concomite
stric
opune
chri
difera
##iciu
ieft
ranite
friday
apreciate
congresul
serveste
dispare
cercetarilor
pred
##cula
fabul
invent
jan
instrumentele
televiziunea
scan
asteptari
predomina
iubim
##alist
licitatii
formatiei
nit
inje
##ones
celuilalt
sofia
abru
convingerea
celula
paragra
recept
file
impeca
circuitul
strategiei
strop
amploare
cabinet
91
constitui
falsa
##45
fundamental
land
##ary
petrescu
pompe
comandat
groapa
dezbat
intel
caie
frie
##lla
entitati
dorintele
excursie
veac
abdomen
calificarea
sofistic
hea
lenjerie
conjun
##stem
baze
britanii
furniza
printesa
solar
nicide
boe
livra
presedintia
charles
tradus
numa
sotului
crin
##ierile
atlant
preventiva
##velor
geomet
fosti
plantele
motoare
115
mecanismul
##kin
unani
democratia
pasionat
vs
nicidecum
nevasta
economii
producatorilor
trimiterea
apropo
inclusa
respingerea
iubitorii
zaharul
##vant
dragostei
paramet
telefonului
depuna
problemei
##over
ciuc
deoparte
analizeaza
glasul
strave
acceptarea
luare
controleaza
tranzactii
brandul
intervine
icoane
dateaza
etaje
functionat
irlanda
agentie
atesta
curatarea
suru
##99
audi
invierea
fisa
caracterizeaza
furnizeaza
vanzarile
incerce
supravegherea
prabusit
astepti
iste
lacului
inainta
obiceiurile
parlamentara
cuge
mouse
ceremonia
beneficiarii
membra
interbe
timo
favorabil
estima
comunicate
##olele
stere
gruparea
patronul
ipoteza
##fara
intelectuale
macin
neput
expus
burta
runda
##dec
osta
romanca
invitatie
degetele
discret
structurii
mandrie
regizor
##structura
##ueze
ureche
drepte
lunare
strategice
aptitud
prelungit
lamuri
##oma
oaspeti
numarat
conducator
singurele
intentie
deceniu
afiseaza
pian
##burile
trimisa
tati
infectii
inginerie
##hool
terapia
litu
arbore
trista
impactului
bui
dome
deplasat
demnitate
dista
gandeam
febra
indirect
sacrifici
numiti
interc
permise
consecutiv
scolara
internationali
stradu
platii
tulb
impoza
incurajeaza
tira
terenurilor
oxigen
insela
democratice
insista
refuzul
constructiei
supermarket
cuvintelor
prepara
##board
roata
materialului
compil
##ist
deto
ascunsa
imbunatateste
evoluti
spectacolului
##tan
achizitiona
asculte
adecvata
inmatriculare
sony
amenajat
inconjurat
ham
dealul
nefericire
apela
proaspata
optiunile
##grad
angajare
##cce
ocean
senin
decisiv
impresionant
declansat
inghetata
purtator
farmaceut
invali
ulu
perioadele
summit
##33
prinda
constienta
numerosi
casatoria
cabinetul
von
administreaza
arca
formal
rusii
make
##gului
comunicatii
propunerile
artistilor
premiilor
caran
indrepta
circulatiei
siguri
chemati
casino
emble
oz
adn
programa
##vite
cuprind
acuma
considerati
stamp
ingrozit
voiculescu
numelui
actioneze
ebon
aria
unesco
sindro
colectarea
##jare
evolutiei
sty
aripi
jucatorul
##urele
hon
sej
##dd
1970
jurisprudenta
aceleiasi
omenesti
filosofie
cantec
gradului
##nanta
vino
##64
orientul
cladirilor
randa
neuitat
exercitiul
calau
falticeni
rugaciunile
stoica
conservarea
scla
##ves
planetei
##ics
pasionati
porunci
pisici
##xul
##ventiile
rox
cainii
coboara
serial
complicat
chimica
trimisi
lumini
alcoolice
ole
well
##ен
sangelui
eron
##andra
tax
sumelor
iubiti
convinga
elibereaza
dormitor
batrana
reporta
adulte
casual
cloc
italiei
drumurilor
detinuti
depun
ici
muncitori
##besti
concepte
exploata
performantele
calendar
##ep
west
##deau
manole
magistraturii
primare
salveze
generali
intelept
cris
fide
detect
tinerete
pretioase
umbla
adaptat
chitara
locuintei
musculare
diferitele
promul
blocul
satelit
##iem
##oriilor
merkel
comenzii
izbucnit
delim
opereaza
atatia
comunitar
atinga
##vand
polua
telefonic
##ordanta
vic
##mintea
stabileasca
dumitrescu
americanii
introducere
deplasarea
##ors
##ditate
celsius
separate
amara
abro
miron
elia
cople
studente
california
inferior
autoarea
baterie
condamnati
##hita
ruc
##here
conventia
mijlocii
depasesc
buzele
ciber
diferiti
propusa
bucovinei
procente
predat
banc
vars
##dos
profesorului
acoperita
extens
inedite
raporta
ebony
optim
adaugata
##lah
##vert
##dean
##oasele
segment
celebru
##itatie
coper
votare
referendumul
ochelari
pofida
singurat
colorat
dres
iep
superba
blaj
afili
testare
fetelor
grec
treapta
tenului
gasirea
paraseasca
##uty
saint
enter
pulbe
politicile
negativa
neintele
mancar
prisma
rara
suspenda
pronuntata
oficiali
ak
retragere
iubitul
autorizate
meserie
misto
reprodu
construire
gold
manifestat
afectati
mergand
elementul
##nitatii
##75
transmita
formulata
sunetul
aprobare
implicata
##28
concentrat
termo
##oua
proiecta
conducatorii
nebunie
tirg
##dau
caldu
situatiilor
##mel
##ill
bucu
cristea
arestare
asp
sexului
incaltaminte
activat
forumul
conserva
cincea
adeveri
dramatic
miscarile
regenera
daruri
colon
##teb
##zy
franc
salveaza
excelente
estimata
pensiilor
intrebam
dispozitii
eroi
##ging
biroc
intensitate
materiala
garantat
ciu
crucii
greselile
exclusivitate
##press
##65
##besc
indepartarea
apr
rav
calenda
##ов
veneau
rechi
craciunului
transfera
project
expan
amor
span
mecanica
controlat
convena
##seaza
penin
firul
incepuse
concreti
elastic
amenajate
echipaj
spatiilor
reprezentative
rugaciuni
trimiteti
##peste
##gniti
tura
ezit
comisii
candidatura
mehedinti
inaugurat
##zzle
meniu
portalul
patrunde
interveni
finisa
richard
metru
exacta
fila
interpreta
bogati
perpe
##ec
declaratiei
dotarea
voluntariat
virtuala
portocali
investitori
##ses
restricti
campan
##mintele
scute
asigurarii
scolilor
class
revenind
confirmarea
cilind
hentai
amplu
voiam
orient
##mici
trop
diacon
##wel
vindecarea
petrecerea
comm
extinsa
concluziile
infricos
##rumuse
sfirs
indeplinesc
evreii
podea
avertizeaza
dela
##lusi
balanta
gresita
pareri
tragedie
subiectele
vouc
cumparati
slabi
regaseste
kat
decretul
incru
botezat
maia
opozitia
rudele
minor
elisabeta
##bs
intervina
gimnastica
tei
violent
balta
fusesera
inger
dezbra
nesi
cresteri
periculoasa
eficienti
##judic
cooperarea
profesie
carbo
combatere
mov
propul
pasaport
anghel
intruni
infapt
participant
cuantum
fragmente
##ctrica
contacta
uleiuri
pacii
band
exil
obraz
astepte
vecinii
##giana
soldati
contractuale
carbura
negocieri
plini
conexiune
team
##inioara
ceasuri
virgil
omo
rang
autoturismul
maced
sexdate
turistilor
antich
##arescu
##alitatii
decret
vasilescu
legislatie
marte
##low
garantii
pronuntat
contributii
instala
##rologie
exclus
cutia
hua
vro
that
##gro
##tire
oferindu
crescuta
hrani
mancam
sefi
##pedia
textura
fast
evite
altadata
industriala
chestiuni
logo
dumnezeiasca
balcon
aprins
autobuze
extindere
william
carita
portughe
inchidere
living
executate
neamul
##ocii
miracul
punand
##grama
xv
house
grila
silviu
groaza
paginii
anvelope
solidaritate
platformei
ofiteri
odinioara
178
curenta
amintirile
ecologice
contactul
tehnologice
##deri
##citatea
recrutare
tabere
##tirea
comisarul
sanatosi
impuscat
colectiva
eventualele
petreaca
ceaiul
##sata
solicitare
depresie
amintirea
amenintare
transpi
trimestrul
stomac
##atoarea
metodologice
votului
responsabile
vernisa
calendarist
arhanghe
promp
sprijinirea
##secunde
superfici
omorat
picaturi
montat
telekom
gandeasca
exceptionale
milano
efectelor
licitatia
##utori
tablou
faliment
britanica
450
plagi
prut
branco
vazute
soa
artificiala
##orite
telespect
sarbatorit
intuit
abtine
judec
cantareata
baba
hem
trimitere
achitat
semnificatia
##ridge
construieste
campulung
maghiar
organizati
dintotdeauna
##sivi
indul
abun
telefoanele
fantana
fundamentala
titlului
##mber
infrumuse
orez
veterina
previ
aceiasi
infinit
##inului
iposta
pizza
liderului
scule
hramul
imbunatatire
flacara
##iez
moldovenesc
variata
cimitirul
asamb
profitul
asociatie
catolici
obtinerii
evaluarii
aeriana
participarii
reconstit
nascuta
pasare
##ntand
cititor
contradict
folosul
##giei
reamintim
monumente
intelegeti
intreprinderilor
##ander
chirurgie
iertare
marunt
gestionare
actualizare
urbanism
ciclu
award
apostoli
##opolit
##nicul
absolventii
panouri
armate
progresul
improvi
medicamentele
multumiti
##xit
##omon
mormantul
apere
##ange
stralucitoare
desfasoare
stadion
comprim
rubrica
jucatorilor
dubi
zia
peisaj
cani
university
cainele
sosirea
creatiei
dumbra
simtiti
selectate
maestrul
estimat
##reen
inevitabil
sprijinit
marcu
chestie
##opul
obiceiul
milisecunde
limbile
##35
dormit
timpurile
complexului
terenurile
programate
creator
postal
mazare
calcat
recomandarile
poseda
##sd
destule
inviat
pretentii
hei
feminina
sif
##atati
asociata
prenu
ecologica
cupluri
citind
##armon
##ater
360
tabloul
##pit
deputati
brancu
##guta
marie
cumparate
disponibilitatea
tec
puzzle
compact
semnale
afgani
1968
cardi
precadere
##rios
inar
##gheaza
romanian
functionari
##gam
posibilitatile
conflicte
stratul
obosit
mandru
calculatorul
##orice
hub
seche
nepa
multimea
formulate
cou
cinstit
badea
randu
venite
pipe
incantat
explice
diete
dile
lana
##lez
pretu
praz
succesului
##stesc
sovietic
prelungirea
majoritatii
trezeste
sarac
ajutam
statutului
parasi
aviz
sole
recipro
comise
diesel
preferintele
##alizata
abandonat
simpl
##ctorului
urina
coruptia
ajutati
apus
jucam
medias
cheile
salariului
tratatul
defen
savarsit
plecam
109
cotidianul
valoroase
101
verificat
##jeste
intrati
trad
editiei
promoveze
##pile
usd
prelimina
biletul
aerian
multinati
participante
patruns
disputat
hotnews
neimp
acoperirea
insuficienta
solid
transformare
platforme
coregra
mentionam
logic
ferdin
impar
concepute
trecutului
saptamanal
portii
optime
laser
culpa
amenajare
angajator
salariati
##reanu
transmisa
capitanul
autenti
fabricate
asistat
##versale
diavolul
reprezentare
transferat
legumele
##rindu
sectiuni
auxili
sigurantei
ib
##dl
##see
matrimoniala
fasole
108
qua
lon
##tle
adresate
##strezi
dezvoltata
##uiesti
tag
##sitor
licee
nemai
comunitare
ferdinand
antica
primej
ambasador
personalitatii
ctit
##alizeaza
##iele
bisericesti
fabricarea
atot
evreilor
tristete
##rich
hote
cica
categoric
dinaintea
prizon
recunoastem
venim
inconjoara
ingerii
dragomir
cimp
instantelor
dal
caps
parlamentarii
copilaria
constiintei
imbogat
colecti
masive
isc
##fro
teologic
feedback
neince
##matiei
etern
lene
greva
balcan
erotice
instructiuni
jurnalistul
toaleta
pocainta
cool
plastice
clasat
secuiesc
martori
##mbe
##yi
portoc
documentului
bure
vizitei
encic
lt
##usor
dispuse
inutil
cloud
tricou
102
domniei
retail
exprimate
garanta
cauzata
prefer
divertisment
proportii
pris
maestru
provenite
filarmon
dup
copi
##geste
muncesc
atasa
depozite
puscarie
nenoroc
##jar
ingrijiri
pietoni
nobel
##niceanu
fireste
robie
cailor
orb
masti
orgasm
echivalentul
atentiei
##serv
prezint
memori
1950
razbo
florian
petros
##ror
pavili
dramat
georgescu
orizont
amintire
asfalt
emisa
nokia
##gate
run
amat
concluzii
inel
bunicul
politehnica
intarirea
agrement
afe
sinaia
135
propova
opiniile
nutrie
autentica
pronunta
amplasate
caranse
instantane
retelelor
prejudic
inlat
cock
interviul
##banda
interzise
exceptional
iernii
zborul
asociatiilor
flirt
white
carcasa
aloca
##tian
html
##fir
creativitatea
capabila
cunostea
contabilitate
memo
##ziunii
uv
controlata
poses
onc
melodii
fondatorul
long
alimentatia
oraselor
##peni
erou
##ily
fotbalist
visele
unanim
foaie
amenintat
arhitect
inno
talie
##casul
privilegi
intentionat
intrebi
preparare
interviuri
##44
##urne
##lite
scuti
paci
mioveni
##fan
nucleare
##lizare
kim
ceruri
farmec
lasate
conspi
patrat
prez
automobil
exige
moi
sighi
emotionale
legaturile
travel
prapa
seturi
##onica
cultiva
##esti
parcurge
proiectarea
nuci
##strate
prinsi
antoni
coloni
browse
##metra
spove
perseve
artistului
inhi
portocaliu
monumentul
##uer
comem
batalia
ziarist
functionale
descoperiti
cifrele
atacurile
brancusi
flora
tarif
descoperire
slatina
publicitatii
operatiunea
garantia
tic
##zitate
intelesul
fluxul
vopsea
renault
previous
calca
concentreaza
afacerii
arheologice
ideale
apartenenta
sedu
##nam
lucrezi
sensibila
vegetale
pierzi
generos
cuminte
tarani
rinic
reprezinte
fotbalului
invizi
seriei
razbun
intarzi
ziarului
domni
##mburg
lipi
incore
aparuta
reglementarea
educative
structurilor
vitala
curti
indeplinite
mandri
sperma
aratam
concluzi
king
hitler
ciberne
initiale
antibiotice
bras
defav
nesti
subtiri
climat
ambasadei
school
adora
cia
cadrului
asiguram
vizualizari
##77
pedepsei
biblie
ecate
polic
rugati
alert
incapat
marturii
solicitari
provocate
impartasesc
riscurilor
salbatice
repriza
saracie
##ratoare
oricar
##rius
bunului
agricola
##sturi
pricep
mis
reactiile
duhovnicesti
intense
##juns
##strata
fantastic
dezle
litoral
autospe
manuscri
parola
multumire
casatoriei
sperie
girl
postale
implice
internat
tablete
comentat
toleranta
maior
climatice
consti
implementarii
mormant
indicele
cript
##atici
reglementari
sensibile
pneum
##mand
zar
atractie
citim
radacini
muschii
##miei
##ovan
conduse
moldovenesti
concomitent
biologice
antrop
expunere
##mond
referendumului
loui
manifestarile
axe
reusite
neplacute
1941
##gorit
lovituri
crestinilor
traga
genetic
sosea
terti
civica
amuzant
##das
familiari
fore
atom
trecuti
##dentelor
operatiunilor
codruta
intermedi
##ctivitatea
insuti
ouale
##all
united
radauti
silic
defineste
procentul
speriat
##och
centrali
##boy
nesim
dispozitivele
##lac
jucarie
amestecul
##olis
diplomatice
anuntata
avansata
informarea
incasa
carton
##gand
casat
refacerea
rascu
urin
izvorul
auda
thomas
politician
filat
laterale
sectie
distributia
infu
beti
latime
##26
manastiri
invierii
cuprinsul
##rick
oricaror
deputatii
220
concer
##uce
invatati
acuzatii
oficiu
inchina
gratar
gigant
colle
camara
consultant
patria
cazului
stalin
calculat
adaptate
incidenta
##orari
balc
bancilor
britanice
adan
psihice
atena
##vard
caselor
xn
democratic
politicilor
dusa
repert
incalzirea
scenariul
preluata
##zesti
instra
busui
anex
##gurilor
seman
##arest
refugiati
##scope
specie
##hy
dante
visa
naturi
##tatea
bisericilor
melodie
versurile
beneficiul
cautand
ghini
##lism
gastronom
nepotri
formulat
consimtamantul
##utea
gazdui
valuri
notele
golul
##mann
##oris
zme
a1
##hiei
necunoscute
instructiunile
farul
##sule
imobiliara
ginec
municipiu
second
##vet
rezistente
ramanand
minoritatilor
roy
primari
kos
impresie
cronice
vinului
decursul
titular
##oge
memoriei
premiere
dating
secundar
episoade
cititorilor
lire
dulciuri
foi
cererilor
imbratis
examene
noutate
##sian
##ois
aiud
sperante
lemne
pastrate
aiurea
##dm
regulilor
miting
nenoroci
neconditi
csu
aportul
##zen
versiuni
nude
##alism
viteazul
coman
dispusi
amandoua
integritate
adaugi
low
comenzile
parcuri
insote
##my
concordanta
reunit
grasim
filtre
ramanem
branduri
aplicatiei
limitate
azil
indru
##vana
tatua
petrosani
rigu
psihologica
network
pudra
cust
sters
maro
povara
devo
prelucrarii
light
serg
##gau
tibe
graba
filma
break
cercetator
inauntru
acordare
zd
senator
umed
cogniti
deficit
carbune
##candu
comiterea
orala
1977
demersurile
vasta
vedeam
detoxi
##opar
solutionare
magazinului
cezar
mixt
vizibila
sectoare
##cao
aliantei
etapele
descrise
coca
acuzatiile
holo
adriana
terorist
digi24
naz
buton
renume
definitie
hg
cisti
echilibrat
contrast
plenul
cutii
ry
reclame
104
recomandarea
antice
perechi
burse
tarifele
psihologic
prezentari
urmatoarelor
publicatia
recunoasca
fostii
##ianta
saraca
caii
##oaica
chestia
mamele
##diene
echipat
catolice
cabana
##prea
##dimen
gaura
diplome
##vision
populari
munchen
catolic
pog
japoneze
magistratii
coroana
##omie
averea
studiaza
rafina
##scuta
strabat
semnificatie
valut
solara
contabil
##stiei
unelte
sarut
prosti
decorative
175
demite
rule
simtea
etapei
echipamentelor
opiniei
rastig
cofe
adverse
##licat
murda
procesor
lemnului
organizarii
anuntate
versa
cinstea
tical
huawei
gd
ecumen
plant
frage
adaptare
sighe
zicand
olimpiada
experimente
papusa
minti
adunare
145
lia
ucide
magica
respira
coaf
restrictii
despagubiri
107
clat
transporturi
mantuirii
redactor
regreta
##gurile
violentei
ulterioara
aparatura
incidentul
podium
##tom
tarie
inedita
deduce
sufla
acopere
glume
##unerea
influentat
indeparta
recital
finlanda
rov
proaste
maghiari
cernauti
deranjeaza
superi
inregistrari
stapanul
partidei
solului
ieftina
gasca
alcatuita
enzi
maghiare
##gile
instii
colectii
tastatura
deruleaza
slovacia
##cj
celebre
observam
##nuit
bad
gusta
producerii
solide
##mire
##dovic
albi
ciz
invinge
buch
diri
cauzat
chit
acelora
vizuale
remi
verteb
lisa
stang
acceptate
pompa
fostei
disney
bucurati
contestat
redeschi
spiri
schimbarii
evidente
leziuni
pesca
abonament
decesul
modificate
ramaneti
##artate
##ience
mura
jucatoare
inval
good
realizari
terminal
##gua
degete
stranse
##croni
kan
##inian
cream
103
interzicerea
gon
##steni
##ilate
exprime
tabelul
privirile
gloria
##ene
sporturilor
saco
luptei
molecul
##shi
divine
arome
##xeli
asemeni
impuna
toarna
operatiune
imaginatie
cunostintelor
misiunii
parter
118
pau
gazduieste
revar
esal
##onaj
moldov
cititorul
papusi
##itie
treimi
protesta
##rla
separati
triunghi
campia
voteze
lungu
##lizarea
##incios
statiune
rugby
##dati
##nton
onoarea
urmaririi
see
evolueaza
circumscri
contactat
smant
hidrata
##nota
legend
hab
decebal
nutritie
pierdute
grinde
civilizatie
existent
sticle
amintiti
stilului
trezesc
orelor
ultim
trofeul
diagnosticul
nuc
##uinta
veteran
portal
batjoc
ciobanu
constitutional
arii
128
devii
documentatia
##atri
locom
adver
bianca
##cord
micile
##rierea
declarata
xxi
inceteaza
pig
scept
exemplar
ungureanu
lentile
##sso
secreta
excel
zonelor
gazeta
##niti
curg
lunara
##29
administrate
toni
tramvai
##aza
insel
enciclope
intamplari
albert
coperta
francezi
minister
mostenire
dvd
concentrare
##inc
risi
rasu
experientei
scopurile
busuioc
starnit
##semn
filialei
inspirata
##bb
dotare
mind
shake
##preasfi
avertizare
felix
regasi
krem
tensi
parcarea
##ational
apreciere
raportare
ipoc
clinice
xiii
panora
acoperisul
provocarile
reuneste
echilibrata
obtineti
analog
olig
##schimb
elicopte
casuta
##dios
masoara
##cc
cearta
intocmirea
presiuni
vinovati
pene
prooroc
promot
##ilica
manifestarea
broa
preme
##ppe
##nari
avra
purtand
straturi
aducand
medalia
ludovic
avertizat
contacte
explicit
cedat
jurnalistilor
purtate
monede
festivaluri
tind
##areasca
nobil
statistici
b1
aratand
bebelusul
##onilor
sensibili
scrutin
maim
atributiilor
descoperita
functionarilor
valuta
sedere
caruci
chinez
militarii
supravietuire
demersul
orhei
psihic
sfaturile
zborurile
mirare
cuantumul
saturat
incu
##dt
transa
scoaterea
##orva
##neau
##gb
umanitatii
internetului
scadea
fanto
excesiva
##pal
fireasca
muntenia
intalnite
roxana
mami
luxe
eforturilor
latin
finantarii
trasee
##lowe
atasat
prejude
centraliz
##nirii
dise
testele
viziteaza
incert
umplu
imper
componentele
incalcat
brun
##spen
demonstreze
derularea
ajutoare
editorial
furnizorul
teribil
volks
amenintari
neobisnu
fagaras
inaltpreasfi
relief
sporita
recure
virusul
##ntry
##veniti
medgi
emag
blande
rasi
rezervare
suv
lasata
what
standardelor
odihn
mecanic
1987
indeparteaza
dacian
adaugam
neob
satisfactie
##utei
titan
mom
stream
indelun
##icat
anna
wikipedia
beneficieze
semintele
bunic
estetic
favorabile
reporter
grindeanu
viceprimarul
marturiseste
amorti
provi
##gerilor
rusu
mt
adaugand
##cuz
plumb
ocupate
106
urmau
nicu
dera
##lot
conceputa
confirmare
umar
nivelurile
ramasa
tipic
luminos
comunisti
hop
sectii
bros
dou
rezolutia
tehnico
inundatii
regizat
intocmai
olimpic
bin
##olia
interce
explor
pornesc
hotari
imprumuturi
sugestii
comercializarea
touch
sindicatelor
parada
lemnul
autostrazi
opozitiei
slobozia
apreciata
acs
botan
spaniol
gestiune
replici
grupurilor
carduri
masc
castigatorul
convinsa
saluta
galerii
monte
colegul
imputernic
rostit
uefa
fisierul
punere
vile
doream
fraza
junior
creme
##sional
ploaia
jandarmii
incepere
extract
elibera
arhiepiscopul
##ronica
civic
##icianul
trasat
echipamentul
device
ucisi
schimbi
spuneau
protejat
tr
substit
incit
curatat
izba
robot
analizate
medicamentelor
trons
salariatilor
##garie
just
must
sere
##tiei
italiene
valorificarea
arsenie
omega
disput
caramida
elegante
retrogra
profunzime
melodia
fugi
excursii
omor
##soare
instalare
propozit
mananc
pensionari
efectuarii
salaj
combinatia
muntelui
recensa
durerii
rochia
imobilului
irit
minore
comunice
detaliate
rachete
tragedia
##cial
dobrogei
florea
actualizarea
donatii
abordat
pulm
altitudine
vatic
principe
denumire
producatorului
dual
harry
mosco
constran
gps
sculptura
selectat
destept
dobandit
##lop
primave
##lurilor
schimbam
##point
obiectelor
implineste
reporte
privitoare
coduri
frontierei
conver
delegatia
ingrasa
ciudata
jen
respiratorii
ms
omenirea
##ovic
agentiile
asteptarea
adolescente
oh
scrierile
cinsti
sunete
fetite
incarce
xiv
##rini
perceptia
gravit
influente
calculeaza
sila
savarsirii
fondat
indice
anulat
desenate
descoperim
radacinile
traduceri
smantana
##otene
##mist
palat
logod
virtuti
##gata
roluri
georgia
surprinzatoare
vamal
postarea
##voda
editor
atribuire
cosul
putinele
cretu
dedu
infractiune
obligata
emiterea
facilita
piesei
despartit
parteneriatul
predea
pacatului
contraval
pierduta
##zabilitate
asigurate
ena
##uate
efective
chirurgicala
##cente
##urului
parchet
tenta
##cker
ilegala
indispen
bugetara
inamic
cumpararea
botezul
discutiilor
altuia
slot
##desti
sarea
gandirii
bicic
distruse
bolse
##sibila
absolvent
remediu
kremlin
##jesc
informe
respectate
praful
party
difuzat
tigara
nevoita
integrata
haideti
tendintele
165
abdom
##oape
sedintele
##uth
principiilor
jung
##strilor
spita
platita
formarii
flore
apelat
vazuse
neputinta
barbie
amate
agentilor
livrate
delicat
pay
stili
liberalii
deterior
lichide
bebelusului
situeaza
sati
universale
obraznic
##mian
iude
diminuarea
inchisoarea
preconi
dintilor
combinatii
fuck
grafice
motoarele
aa
##descu
aseaza
clujului
apropia
holocau
turci
litru
templul
imobilul
imbunatatit
nemultumiti
terra
durabile
asezate
apeleaza
configura
expirat
convinsi
uimitor
autorizatie
intrebui
chimie
unchi
sova
asistentei
integritatea
negocierile
ordinara
flagra
geno
feminine
incom
manevra
verticala
eduard
perna
folosire
##roba
from
##chester
irita
beneficiar
sincera
acuta
simon
prietene
incendiul
spectaculoasa
montarea
ingerul
kog
castigatorii
pretinde
subtitrat
racord
champi
informatice
spaniei
oprire
greci
predica
contina
rafa
ecologic
poeziei
stricte
pregatim
virtutea
119
eficientei
xe
deste
tus
baietel
structurale
manipulare
organizeze
3000
dezamagit
##liste
eni
domin
statui
discre
reluat
disconfort
fruct
##ра
reper
sangu
##farul
islamic
donat
cunoasteti
reglementeaza
intareste
conduita
##daj
supusi
adese
proiectate
reactionat
implinesc
pensiile
##zis
platesti
originar
indicii
bali
albine
tomis
reusim
refuz
intalnirile
unghii
defecte
##iler
doze
motorului
##hoo
praga
orgie
chia
strad
sinoni
clor
impotri
aroga
directiile
confere
avocati
sesizarea
birui
##grame
remus
exercitiile
chal
paran
examina
side
alternativ
argumentele
##arhia
somaj
titlurile
mania
inman
creativitate
lipsite
prealabila
negoci
curva
chinuit
mobilitate
montate
incalcare
descen
mentinut
liturg
##tite
accesarea
tonul
jer
studia
venus
##ochi
certitudine
##66
ocupare
##pondere
lucea
eme
alteori
sosele
uniforma
efectiva
##ntarilor
##gurii
inregistrati
notiunea
ego
instantele
boxe
webcam
oma
rodica
dic
##ciale
notificare
colega
sime
prind
vechile
struguri
selecta
oricui
datoriile
##tte
setarile
pv
##ska
aparenta
impinge
explicatia
##ben
dinamic
sinteti
aferenta
criminali
zugra
miercurea
perimet
taberei
dansa
prelucrate
castra
natiuni
investitorii
ascund
margini
sintagma
strab
frf
creditelor
plia
inspectorii
neglije
platile
adeseori
natiunii
haz
invatarea
diversitatea
preasfintitul
lunca
##tila
provenienta
abilitate
abilitatea
tac
conecta
atractive
1986
seo
remune
telecomunic
delibe
prefectului
detasa
scap
deschisi
asce
profesiei
aneste
mute
body
silvic
vizitatorilor
unicul
##gne
##otro
155
trupelor
restabili
179
##ureze
severe
java
copy
criminalitatii
1500
concentre
gesturi
pedeps
miss
mandate
armele
aqua
melea
decurs
batai
convert
popovici
incapere
230
rotile
litora
strategica
dureros
maturitate
215
incredibila
##cis
obligatie
fondata
evoc
##ctorilor
##iteze
aval
153
##sten
intima
urgent
disparea
rotunda
scuza
bordul
a3
ideilor
picioarelor
leo
jal
fericite
incidente
protestul
colaborat
gruparii
vult
vicle
margare
##gai
aurul
castel
aducerea
1920
##bas
ghic
natal
pensia
scapi
vostri
craciunul
definite
afirmatii
hardware
transnistre
##irile
padurile
frauda
montane
recenzie
african
ecaterina
controlate
##tez
impla
suplimente
123
liderilor
vamale
institute
afganistan
turismul
##ceri
punga
prover
stefanescu
1960
alocarea
echipamentele
umiditate
singe
transparent
intarit
corul
nesp
autonomie
##ealth
umeri
1988
pov
pizda
colestero
iso
distribuit
chinei
##ury
##andri
trun
stabila
##bank
incompete
civilizatiei
prejudiciu
pali
introdusa
##anel
pregateasca
mandra
dorite
coach
##pn
htc
amplasa
treizeci
demol
peretele
conflictului
atractiv
lantul
1947
imaginat
##tezi
##fest
cumpana
sursei
consume
operatori
priori
sincroni
alexandria
numeroasele
formatii
textile
##qu
diviz
dadu
criminale
##id
fasci
zaha
aventuri
costin
aprecierea
aport
wall
sindromul
amuzante
localnicii
abundenta
templu
seism
mla
escala
blan
inimi
muresan
moarta
semnaturi
nivele
acorduri
conexe
##rant
glice
##но
##tam
imposibila
juriul
circumsta
musulman
reprezentate
##sv
cosmar
scriitorului
globali
formatie
rabdarea
iuliu
visat
angajatorul
alergat
necur
frunza
nuca
story
noct
psihica
gluc
##nik
iad
siret
defavori
oase
favorit
somnului
exceptii
dispara
moto
nutritive
reduca
curentul
chirurgicale
lacrimile
culinare
valabilitate
reia
contabile
provincia
patrunje
informatic
##justi
fermierii
##88
pleci
natiune
accesibila
reaminte
##udia
epocii
##sal
wifi
ramine
viseaza
conchi
eliade
##dina
brexit
catorva
1985
testarea
##centa
esca
solomon
pastile
completare
deranja
necore
elaborate
barlad
adanca
pista
reun
vorbele
##giile
anuleaza
principalii
sibiului
menaje
aplau
veci
inchiriat
plasate
secretele
fenomenului
localnici
luminoase
medgidia
apostolul
##arba
echipelor
indicator
dif
formatul
kogal
colone
cub
constand
subtil
poduri
guvernarea
petrom
provocarea
ispa
contesta
daunatoare
##km
johan
ipad
interm
dandu
confortabila
bazei
romaneste
fortata
ruleaza
explozie
##arct
inferioare
speri
##hl
sclav
franco
stup
montaj
optional
majoritar
scumpa
portofoliu
animatie
##side
soros
complicata
arteriala
sighisoara
descurca
creatorul
tinutul
accesati
ferate
evaziune
gui
particulare
examinare
necu
angeles
dorinte
statistic
comoara
##rome
statistice
road
carbohid
3g
ecrane
noroi
kogalniceanu
ardeal
brati
florilor
intoarcem
##deasca
vizuala
costat
verifice
stapanire
faze
razele
talentati
islam
termene
interesului
nejusti
romantic
socoteala
multifuncti
instalate
intrand
tabel
##rgi
scari
conservare
restructura
ultimelor
asociatiile
yahoo
inregistrarii
1984
##strez
inculpatului
esecul
soia
vesel
##ology
tanarului
virgin
atitudini
comunism
rostul
bucharest
primind
salii
anver
audioviz
angajamentul
propriului
numerar
sari
ocol
partenere
voteaza
scorpi
##kes
excesiv
porumbe
##ppy
perform
reforme
observatii
##ments
filtru
algorit
conventiei
xnxx
hidra
motivat
oro
##ield
cabina
autentice
tulp
ku
ramura
pastram
retraga
patrioti
continui
senzati
inutile
fres
240
beta
##zant
motivatia
analit
teoretice
stocate
primaverii
galate
calatoriei
operatorilor
unitar
afirmatia
mori
check
utilizeze
muse
tinde
traditiei
fumat
##ineaza
##carii
ajunsi
eret
##jeni
aflandu
asezata
stir
feroviar
aleea
deskt
inspirate
arestati
tratati
alergare
amazon
bland
stabilitatea
oferirea
recuperat
thail
##inf
fermieri
tol
lins
deficitul
bart
bill
instante
##nitud
turb
initierea
racire
rasturnat
atragerea
silue
soti
parerile
ingrop
##ulte
tour
potrivesc
pierdem
mantuire
adevarati
##yl
simtul
iute
santier
stanciu
sarace
colora
picat
jef
imaginilor
##nar
##bc
sporturi
impartasi
speta
##pc
atribuit
##hoi
##arus
acva
surori
christian
statist
neasteptate
imbracati
##usit
erd
tratata
tubul
miri
sacra
hiperten
spitalele
partiala
ocupata
amanunt
senatul
nicoleta
cita
avertisment
fotografi
artificial
siteul
god
banatului
protestele
respectarii
urechile
spul
bif
numea
observator
magistratilor
marturisesc
marirea
dornici
destra
rali
meditatie
cantemir
mentionez
infectie
sarma
focus
efectueze
aeroportului
englez
atribuirea
elefa
indepartate
asteptate
prepondere
iarta
marfurilor
cursurilor
comandantul
ocna
colturile
priza
bratianu
greciei
schimbarilor
incheierii
executia
lipsi
scriere
pece
specificul
beauty
eventuala
##cli
manchester
concentra
arhitecti
substantele
aplicati
inovare
cernavoda
anvergura
sferturi
stelei
rival
nerabdare
proe
doru
ox
##eare
inacce
murdare
tehnicile
porci
amateur
curiozitate
nicula
pertur
extratere
##oului
##win
focului
delicata
sert
husa
elector
raspandit
obtii
sanul
alung
vanzarilor
nisa
edilul
simplul
academice
realizam
imbunatatiri
##sson
invecin
##lama
capod
capitalului
fratelui
##inesti
sportivii
difuz
ficat
dreptatea
muzee
##yn
disperare
retinute
urmarind
managementului
dulap
toxice
admirat
terapeutice
curiozitatea
tuse
relua
hiv
centimetri
##pers
gravida
rute
##ctic
impresionante
nadejde
iaurt
##pai
##rage
fain
navo
turnu
##vali
devenim
##68
ducem
secolele
bica
profesionalism
precizand
exceptionala
samanta
lote
recupera
##wagen
grigorie
prioritatile
telefonie
iesim
adultii
protejeze
coalitia
arabe
incarcate
acceptata
gospodarie
exclude
petrolul
demnitatea
reglementarile
stupi
##direa
benefica
onest
##ografii
##41
amanat
viitoarea
absur
5000
costel
cafenea
mb
editori
decorat
capodope
derulate
defecti
admiterea
dezi
##ciul
sprijine
gazd
respiratia
stralucire
factorilor
apetit
##onect
lovi
popoare
menit
rares
congresului
##bona
##anis
furie
interactive
vodafone
mutarea
##anare
personalizat
materna
vioara
furnizat
zbura
completata
nelim
scrierea
leasing
semestru
salile
##onatii
antrenamente
presta
baterii
drive
dictionar
licenti
statiile
1969
salt
garnit
captura
moza
##brid
orientarea
binecuvantare
reglementarilor
fusta
tacerea
saptea
creativa
verificari
aderarea
compen
imobiliar
procesare
consumatorului
##stern
sodiu
facilitatile
spea
promovarii
lift
font
accidentat
risip
listei
##ceala
distrug
cuptorul
judecati
cheltuit
semneaza
confruntat
cuprinzand
citirea
alar
trandafiri
##nare
insulele
press
sarcinile
erg
scrisul
intensitatea
uimit
apocalipsa
##ricii
pozitiile
iubitor
adunate
crimeea
launt
enerv
schen
##anesc
preotului
spray
coordonare
cojoc
decon
acizi
omenesc
pacatos
neobisnuit
neguverna
slav
impresii
lili
eleva
neregula
inexi
sult
sarbatoreste
dezinte
pastele
sile
##neb
municipale
epist
recomandare
##kan
capra
##oniste
tore
altar
intampinat
evreu
mans
locuintele
male
detentie
##pan
suceve
talpa
relata
lie
117
seminar
eroii
actualizat
amplasata
carpat
cupru
pareau
genetica
acomp
insecte
focuri
moscovei
jiului
maraton
##vis
farmecul
asigurand
champions
declarate
filosofia
placul
arunce
corporale
ocupati
modalitatile
armen
uta
pastor
dispusa
henri
lag
utilitati
posturilor
dovedesc
autonome
dotata
##ateau
strang
trasaturi
inovatie
adaptarea
##mbru
micuta
copia
qui
alfabe
parteneriate
rating
##arcati
seniori
sloven
navodari
unda
intampinarea
inselat
sucur
desktop
incepeti
separata
zica
##gov
##ock
repere
supara
ceresc
imprime
aparatele
obiectivului
dedica
bloguri
aluat
fibra
##pol
respectivul
binefa
andra
trecea
nerambursabile
##ocrat
intind
academica
stadiu
grabit
regatului
varstele
infiintare
acuzati
prepararea
arg
gospodarii
revelion
favorizeaza
experimentat
celul
##but
instituirea
mesei
vehiculelor
asocierea
invitata
moldoveneasca
pensionare
hotararile
powe
bebelusi
nevaz
triumf
talha
candida
subventii
intreprinderile
potabila
vesnice
tori
arati
parfumul
acumulate
autism
seminarul
figureaza
dosarelor
indrumarea
##vora
asteptata
##anelor
mamica
marmura
naval
##48
sarat
editurii
ric
apla
animat
decoratiuni
judecatoreasca
constientizare
1974
necorespun
chita
desemnarea
nunti
adj
eliberate
complicate
psihologice
setari
amanunte
investiti
buzunare
##hai
uniune
planifica
derby
##ntage
deport
vip
1978
177
grupele
severa
gmail
bati
##stive
investigare
rosc
repetit
ghimp
bateria
auzim
##orei
dorul
1930
##olie
##rot
actionarilor
vizavi
##iliu
spulbe
combinat
reface
virsta
module
taiere
retroce
inventa
##gna
pensiuni
rezidu
poalele
finalizate
indrazne
pelicula
##frontal
reprezentanta
verb
sapa
##formi
bacterii
maco
geopolit
genero
sensibilitate
rezumat
infractiunea
turciei
tranzitie
preocupat
prietenia
##uiri
calculul
gazdele
distante
fotografiat
dease
restaurare
trunchi
cicat
stalp
brasove
##life
pome
multimedia
rezolvare
juriului
suede
teorii
distincte
neavand
veterinara
indicata
niciuna
voron
pregatirii
senzori
750
##est
functionala
videoclipul
##chilor
corpuri
##catori
organice
portarul
neinte
lactate
concepe
pierderile
##ulesti
imbogati
certificare
ray
clima
zen
incadrarea
democratii
locuia
1949
relatat
##cha
supravietuit
prostie
bazinul
planificare
certificatului
realitati
cardiovasculare
over
##varsit
silvia
concurenti
farmaci
science
circumstante
sustinand
romanie
organic
chestiunea
rolurile
transnistria
clocot
adopte
hara
timisoarei
convocat
##directi
##stiri
nuclear
intari
anvelo
examinarea
gradinite
musculara
compartimentul
jurnalism
##nteni
sprance
savarsite
greutati
mentala
mostenirea
bih
stiintele
##opa
redescope
astern
groase
analizei
##dici
##ventei
catedralei
volkswagen
##cke
crista
scrieti
1975
##oras
screen
osc
cristal
##lle
imprasti
mirela
gatul
niculescu
vasele
tits
piv
constanteni
transplant
incurajat
dominat
mierea
linkuri
datorat
stras
intunericul
intermedia
erdogan
vecini
mortal
taierea
##49
chan
entitate
ajunse
centenar
fericirii
folosirii
teodorovici
zalau
lucrati
renuntarea
infractional
culcare
##nifica
protocolul
365
selfie
toxic
crize
pazit
discou
anre
conducatori
vegetatie
##ritii
tablouri
nicusor
soro
##pert
responsabilitati
##gesti
competentele
principiului
intreprinderii
stomacul
indicate
iro
remor
techn
urmate
granitele
##steptat
stabilirii
anticipate
aniversare
rusesc
##69
impartite
politistul
varsov
metalica
temn
atacantul
revendica
##well
personajelor
depasirea
##clu
spunandu
invol
trate
loti
##39
rasf
##osie
binecuno
##smus
asume
gadget
previne
armat
intrist
incasat
federal
##zeala
silueta
judecatoriei
descarcati
ascultam
simbolic
actualizate
condamnare
parata
rotun
amestecat
lib
abuziv
cofina
pastrati
afirmatiile
numim
faptei
##ilt
promisiunea
productii
arestarea
angajament
##omuni
111
automate
##tita
neintre
sefia
1917
liniei
partenerului
arbitraj
panta
colind
valul
planificarea
gatului
consultare
reginei
delegatie
limitarea
lectia
inaintat
##cite
stinga
busty
inscrierile
intreprindere
lateral
castrave
postate
##rui
acumulat
diverselor
dramaturg
cerebral
artelor
preco
asiatica
citite
convenit
autorizatiei
stiluri
depind
alocuri
observatie
aprox
ascultati
ny
vind
uniti
poluare
detaliat
desta
##anilor
considerand
use
##ismul
vrednic
alimentarea
conne
ov
ecranului
tragic
pahare
apartinut
optimizarea
bazin
ilumin
asumate
rugaciunii
cancel
newslet
bruneta
moldovan
indiferenta
crestinismul
desavarsit
verbale
1979
1919
grosime
combinate
didactica
1972
potrivi
introduceti
existand
humanitas
incheiere
texa
clasamentului
dialogului
pepe
revenim
trandafir
achitarea
evitati
adultilor
sfintul
sire
inaugurarea
virtuale
bilantul
articolelor
amana
banate
aluatul
etnice
fetis
cookies
mw
datei
registrului
fisierele
##32
mafi
vera
promisi
impins
129
zeama
vintage
oprim
##ball
##vion
democrati
imposibilitatea
prefi
majorat
remarcabile
promisiuni
hat
mediat
directori
forestier
ultimului
gauri
adapte
reactioneaza
imense
beij
decent
under
romantica
designer
ample
ofic
discriminare
solicitati
fanilor
piani
brandului
##pla
139
jandarmeriei
creditele
##mania
situa
cire
optat
##uresti
invest
divizi
inghiti
pestele
alearga
bariera
1982
saruta
asteptau
dentare
diametrul
ezita
loveste
neasteptat
hcl
sanitara
taiate
##67
##serie
prob
cobori
investigatie
pasarile
expirarea
imbatranire
nepri
nistru
##ille
visc
dureroase
registru
demi
neautori
raional
ring
eroul
beneficiarilor
capabile
scoasa
magie
impuls
dy
##odul
cincizeci
apeluri
ilustrat
alo
intero
intrebe
ducea
daily
gheorghiu
etnic
claudia
bunastarea
continuand
paleta
privesti
arsen
##inalul
fetish
rin
navale
##itel
##ritul
panou
surselor
lucratori
##odat
accesoriu
##jarea
diversitate
scada
##bot
experimenta
##pm
sarbatorii
absurd
austrie
morcov
rezervat
1939
regasit
##sla
integrarii
detinuta
protestat
retinuti
argentina
##osu
anunte
hobby
stimula
geografie
veterinar
##oianu
definitive
1981
zgarie
motorina
##gem
raze
pho
bogatia
cooperati
organizatorul
locuintelor
comportamentului
evitat
hora
mali
polonez
creatii
ponderea
##zante
folie
##olalta
priviti
fabricatie
##pun
petra
compune
peninsula
fale
plecand
hoc
polivale
kw
ard
1973
procedat
saracia
chimi
credinte
munceasca
buletinul
cantari
binecuvantat
about
ministrii
digestiv
bilant
marga
tirasp
##stile
pensiune
blocarea
intrerupt
valoros
dadeau
misterul
comunicari
scoti
##ер
pent
confuzie
capcana
artrita
premiat
##openi
limiteaza
bc
creaza
mintile
138
leaders
williams
transfrontal
converti
##atil
psihotera
reflex
bunavoi
mesele
viceprem
posibilul
descoperiri
individul
aduci
bute
##time
veghe
organizatorilor
parteneriatului
conducte
menita
tirgu
faciliteaza
minciuni
watch
comunitara
ping
##mala
cenu
specializarea
aura
motocicleta
evidentiat
##yai
desfiintarea
negociere
penitenciarul
##uitor
ofertei
urce
anexei
##magaz
ay
anasta
camelia
distruga
ingeni
anonim
##ronic
inlaturarea
stipul
selectione
modificarilor
cross
distribuite
##mont
##nov
curioasa
avind
aprofund
pup
oportunitatile
araba
ciclului
impozitele
resursa
ierarhi
preocupare
cash
treburile
preventive
asus
stravechi
beach
gole
autop
temporare
alge
respiratie
ordonante
micii
capatat
rinichi
##aresti
mariei
castigi
constatate
##rieni
recipie
contur
blana
folosindu
incanta
definita
cedo
favorabila
calatoriile
mergeam
consolidare
soldatii
bcr
expoziti
reincar
isl
celebritate
interactiunea
angajatori
declansarea
otet
##reg
bt
semneze
precedente
ascultare
except
##bola
paki
confirmata
boabe
mentiunea
voronin
m2
tinte
vechii
desci
vinerea
lapus
specializare
challen
furnizare
##ville
imparte
indeplinire
moldovean
rolului
cr
castigarea
sema
madalina
venita
negust
schengen
mach
##odia
contributiile
instalatiilor
occidentala
inad
##cerna
rezistat
canalele
consumate
echivalent
intelectuali
favorita
rasplat
bucurii
evangheliei
tematice
geneva
invoca
##pu
cenusa
149
rapoartele
materii
glorie
adune
##em
mixte
cipru
induce
masterat
tiberiu
axi
mente
electricitate
sesizare
gripa
matrimonial
##ituri
##note
comisiile
adaugate
sima
call
emigra
##ath
wordpress
1983
##fla
pesta
tipar
teroriste
pariu
depunerii
unita
biscu
vitezei
educativ
hallowe
botezatorul
identice
simfon
paradis
reduc
medicali
nefavora
cainilor
inflo
afirmatie
##andeste
texas
gut
lampa
promovate
1916
##bea
vasul
moastele
omagiu
pozitiei
alini
beneficiarul
cacao
114
disponibili
##zape
vecina
intentii
bunici
omv
bratul
cenac
devast
##55
laolalta
relevant
bez
cautari
##fiere
alexe
ierta
blocheaza
batali
ski
seriozitate
gaming
pesc
aniversarea
menirea
verse
sporit
organizator
necre
macron
croa
##rans
alecs
vitale
apreciez
##ndul
prajituri
hp
magneziu
psoria
ramuri
doamnelor
volanul
pulbere
intalneasca
nedu
valutar
verificate
serghei
imbar
exacte
oala
galei
css
consilierilor
##atiune
asteptand
sera
##orth
domnilor
sasea
##tail
##ferei
duse
abordeaza
zidurile
readuce
1938
sterg
lesbiana
achite
eurovision
adversar
##dana
monarh
insulei
coalitiei
condamnarea
vernisajul
intoar
##ferica
sini
laudat
localitatilor
##rad
ciora
problematica
notiuni
antreprenor
nemultumit
masturbeaza
cumplit
ofertelor
guvernele
identifice
inspectia
baneasa
vestit
grecesti
prajitura
rareori
##media
contraventionale
made
coma
macovei
magia
intensiva
accesoriile
independenti
##deste
teni
declaratiilor
distribuie
##oaci
##ars
actualmente
acceptam
margareta
##oto
capitole
scorti
slabiciune
##onet
##inflam
remarcabil
coco
##ficator
acred
distrugere
abordate
statuia
andrea
##piter
arsuri
##onista
cultul
reusesti
varsovia
complicatii
repara
precizari
operele
1964
necunoscuta
etnie
arbori
vointei
evanghelie
prestigiu
tace
hipo
##fp
cautate
nedeterm
##ilare
locotene
muti
##uos
pretios
##63
adusi
sirop
amster
##coin
##ghea
159
##stelor
pietrele
pont
##key
increderii
felii
detri
practicile
rum
monumentelor
##plus
crestinismului
masur
omeneasca
impozitelor
shakesp
padurii
##zel
performantei
fax
evla
obtinem
insum
vechiului
expresii
esanti
colaboreaza
integranta
funci
will
intuiti
bugetele
seraf
##inice
predarea
##vesti
lituania
homosexuali
adjude
ingrijor
voca
panoul
bilaterale
impusa
delicioase
intinse
necesitatile
dubai
repararea
reprezentativa
analy
gresite
mecanisme
##hidrat
discute
##pesc
gradini
decida
caza
sibe
ambi
generatiile
gunoaie
publicarii
solicitarii
1976
##itz
revizuire
ideii
promotii
##chet
rana
lucratorii
dentara
due
traverseaza
darurile
slabire
contributiilor
##cil
neagu
paradoxal
remedii
sucevei
seriale
first
depozitarea
##mt
##ни
infer
mamici
##citate
chemarea
municipalitatea
oaspetilor
derulare
ua
armelor
publicatie
bolyai
medievala
camioane
1971
debloc
pomenit
vindecat
ordonat
discuri
acidul
filmelor
initiata
vici
martorii
jena
viziteze
148
associ
have
intensificari
##osit
ilic
vorbeam
neur
dansuri
echita
##ografe
suprafetele
poeti
ir
iubeasca
apia
vesela
realizarile
adia
curricul
statisticile
probelor
bruta
##hton
poruncit
##vor
##velop
comunicatiilor
inscripti
##scris
interesata
luceafarul
diametru
canapea
dulceata
expul
forumului
angliei
gdpr
constatare
investeasca
hidraul
urmasii
ghimb
acro
rezuma
demersuri
##tip
##rente
consultarea
aburi
##ografiei
parohiei
subiectului
locomoti
jon
performant
slujit
hoti
memorand
##uata
autobuzul
termine
moldovenii
eric
ajutorului
remo
##atiale
evidentiaza
musca
perpetu
hate
presupus
autorizati
nistor
menta
activelor
debuteaza
flacari
blonde
peters
motivarea
prejudiciul
complexitatea
untul
cadere
jet
metabol
colaborari
andr
investitiei
instantaneu
manichi
flexibil
insistat
gusturile
guvernarii
##nim
ein
unghiile
dascal
lipit
##sky
##marin
politicienilor
descarcari
peru
poeme
pedepseste
interra
##cos
remarcabila
senzor
apol
##oritoare
egalitatea
avuse
mediile
feri
crem
intervin
rio
manusi
elevul
onesti
navigare
scortisoara
##rurile
albastre
ingrijit
ecle
epo
adaugarea
##alty
amanuntul
autorilor
intalnita
olguta
operatia
angajatorii
finalizata
determinate
camerelor
munteneg
sensuri
rectificarea
provincie
voicu
exercitarii
carre
conversatie
antiinflam
solicitata
imprejurari
institut
stateau
banesti
mainilor
telecomunicatii
conde
repros
finalizare
legitime
stagiu
indemnat
avute
alesii
##otel
dividen
prefectura
sept
impartasit
absolve
vertical
deficiente
##ansa
lumanari
calma
entuziasmul
lingvistice
##constie
cenus
cooperarii
factorul
britanici
sci
fictiune
fatada
necesarul
strazilor
##heze
telecomanda
plaseaza
neschimb
punctului
paravion
##cium
smeche
##arei
profesia
epidem
nemurit
incepatori
1848
plastica
##andez
london
stresului
gestiona
coordonate
traia
egida
##vila
113
scriitorii
legende
nedi
tainele
povestirea
chic
spontan
camion
abra
##sug
iccj
autorizatia
rca
preferinta
##minat
ambarcati
cantecul
iluminare
intreprinderea
caminul
absolvire
hotii
spanz
teof
haos
zidul
bunatatea
caransebes
flota
127
militarilor
##zire
includerea
hidratare
sosi
atractii
how
iertarea
##jate
masurare
petrolului
constantinopol
semnala
astrolog
formelor
semnalul
tariful
stimule
ileana
platon
uciderea
multora
adina
infante
##dimensi
ocrotit
ronal
##rd
reclamantul
pore
singuratate
deser
infrangere
kara
luptele
masurii
##gente
louis
uniform
dramatica
168
incarcatura
minge
tas
reglementate
158
locata
pos
livrat
pantofii
kon
rational
monah
nichita
halloween
down
##onisti
happy
enumerate
##bite
ungar
supreme
deasemenea
manualul
decern
##pore
detrimentul
datoriilor
reprezentarea
marcii
pieselor
ingropat
sura
diviziei
invocat
reciproca
ky
constituite
brigada
austro
##ntra
inflori
consacrat
voturile
ultimei
pure
investitorilor
sound
scui
scufund
consolidat
accepti
caruta
dobanzii
##sori
incercarile
147
democratica
sauna
consumator
referindu
ciorba
autorizarea
manageri
chirie
publicitare
conectare
pieton
resi
voluntarii
##rent
tap
plasament
contrabanda
##43
suspens
deriva
metropolit
haluc
culorilor
platilor
hin
punctat
coloane
subsol
player
felicit
supravietui
canon
1965
muncitorii
impro
praznic
interbelica
masiva
prostii
##inoase
ingri
health
planga
romi
vecine
permisa
obste
ignorat
ucraineana
pieptul
##gerul
colturi
metodologia
coordonatorul
steri
vulnerabile
anchetatorii
finaliza
deranjat
biletelor
stergerea
incantati
compartiment
role
luminoasa
consecutive
chisinaului
galbena
dex
devenise
sufletesti
reclamanta
stramt
oprirea
express
joseph
lovita
##oste
batranii
##gio
practicat
datorata
rava
stejar
castiguri
exprimata
impiedicat
aminoaci
ocazional
##roton
procura
bravo
presedintiei
achizitiile
milfs
retaile
biz
mancaruri
incredibile
stradui
##lova
spectatorii
scenarii
vietu
creatoare
ingredient
agen
comunistii
##sci
##ffe
##ots
ziduri
anumiti
cuplul
simptom
electrocas
pretenti
cascada
ceh
plura
priveasca
savu
##script
dezb
obligate
edifici
coro
anxietate
persecut
pldm
ingadu
uzina
ucenicii
puterilor
arbitru
##ratele
##fc
stricat
asculti
sado
##ged
1946
angajata
cotidian
uzura
blat
sq
panda
farfurie
##ро
comisiilor
autohtone
plaje
distribuirea
lipsiti
neplacut
stima
##oid
terestre
kaza
antioxidanti
lipseasca
biblioteci
sugerat
zboara
notat
acurate
sarpe
externi
locuitor
degene
competent
strin
169
intocmite
##oreni
##47
joasa
juris
raionului
destine
excesul
rosca
##ineze
otom
conectati
grop
hibri
rezervari
solicite
lasandu
ramasi
temperaturii
idol
curiosi
stateam
tremura
frantu
breve
imine
decup
poc
lab
dublat
calatoresc
##ntitului
intole
construiesc
misi
paralele
vlaicu
definitia
bauturilor
antonio
tiparit
vizionati
facultati
cerute
##cht
zaharia
##derul
deform
diferenti
descrisa
##less
curea
subconstie
religiei
store
##bt
descriu
termenele
magistra
popoarele
personajului
sfintelor
gavri
ceasca
enache
mizerie
protopopi
poloniei
cetatenie
promotie
iurie
bric
##otat
incepea
1956
ecologi
1967
isaia
ridicare
imbracata
peisaje
sediului
##gir
137
laboratorul
exotice
armonia
##zlo
neli
ever
rasari
implant
pictor
platoul
##vante
excitat
atp
##þa
capitan
producere
prestate
echipate
medicinale
contribuind
longe
carna
afisarea
matase
muzicieni
beijing
cetateanul
inex
taia
exagerat
##fii
luxemburg
renta
##urge
vaii
palmare
izolate
frontul
sax
geografica
informationale
expertilor
colorata
grozav
ucrainean
maroc
hun
insoti
transmitere
asalt
fezabilitate
periodice
##proape
conservator
containe
bern
neaga
brutal
deterge
informativ
criteriu
rase
##cica
psiho
tehnologiile
stralucirea
raportate
amsterdam
gau
actionar
profitat
glori
imprumutat
tehnologiilor
distrusa
dictatura
batalie
##zatiile
telefonice
creditului
construim
manuala
conceptului
semifinale
multumiri
paros
reuniunea
discutate
marunte
filmare
inro
##sman
continent
conventie
##roprie
blogului
musai
tora
vecinatatea
spectacolele
pedepse
##oian
intoxic
incarcata
corespund
multinationale
по
intrece
conceptia
aruncati
exceptiei
eforie
pvc
autonoma
comunismul
##piei
silicon
tubercul
acordarii
inghes
paralela
sever
inceputurile
turca
alecsandri
arhiere
2021
apuseni
tribunal
content
grant
fixat
medioc
servesc
autorizata
scenele
inflatiei
imigranti
audiat
roade
eliberata
##scrie
postala
sageata
trucuri
pm
ofiterii
carpati
evacuare
nominalizat
substantelor
royal
implementate
ascunda
gif
jupiter
jurisdic
calare
capacitatile
meritul
cheltuiala
pacific
indelungat
viziona
lingvistica
facturi
substantial
hrist
poca
erasmus
pustie
buj
exteriorul
formularului
contestatii
penalty
code
instalatiile
metalic
serb
hul
promovata
mercur
permisiunea
balet
dobandite
aprinse
diaconu
canic
satisfactia
recenzii
pamint
proprietatilor
dureroasa
reluarea
sobor
magice
variantele
purtam
##ilei
cis
eh
##our
lear
##ink
neincre
pretex
logistica
buchet
abuzuri
monop
gardul
cimitir
pacatelor
alexander
taine
##denii
##anas
corid
civilizatia
erai
creditul
dezvaluiri
definirea
instalatie
steagul
artificiale
creta
privita
##sala
asezare
patriarhiei
macedonia
incadra
australian
motivatie
space
sectoarele
armonios
tiroi
intimpla
invech
mediere
sosire
medievale
provenind
superbe
acnee
atacata
latine
piers
imbunatateasca
strainilor
taram
centra
adeverinta
##randa
constituita
distinctie
##farsit
persista
116
polie
creand
decid
prietenos
ziari
culturile
angajarea
dezbaterile
insom
favorite
cocktail
1900
dance
esuat
##otehn
##leara
preotilor
analizele
mentenanta
##alizarii
extinse
inlocuite
iacov
buce
unanimitate
inceta
rezidential
aruncate
stralucitor
jaf
biblic
minunea
##dela
intinsa
ajunul
nept
bagaje
urmareasca
mediterane
gherla
fiicei
indiana
singa
specificatiile
##ет
##chip
##steam
iubite
##zatiilor
ultimilor
ture
00replica
##noi
izolare
loto
scm
chei
italieni
palm
atu
greg
distractiv
promotionale
##nind
##gesc
grupari
precise
subteran
interventiei
incalzit
turnee
vulnerabil
santaj
aduceti
patima
##ctiunea
romeo
sistematic
contributiei
##zitatea
descomp
formulare
adormit
duel
pix
individului
timid
scante
nominala
metabolismul
viitoarele
##unescu
pagube
mentiona
infiintate
kle
porumbei
medalie
izbit
avocatii
##lamat
paie
indatori
startup
##tist
##iceanu
conventionale
ardere
asezarea
suportat
invataturile
##sas
publi
stelian
##inger
uber
contenci
xvide
bratara
cir
magnitud
satan
reprezentativ
vizualizare
slujbe
bucuros
mecanice
bluza
##ingi
rezonabil
compatibil
garderoba
asociati
smo
126
##ziera
rezident
raspandirea
ortodoxiei
porcina
capric
grind
producatoare
##jit
instrumentul
indicatii
dauna
bdsm
rezer
aplicatiilor
fertil
view
televizorul
##right
##ficatie
imaginati
exten
arabia
##dr
##oasei
spatiala
carosabil
inlocuita
##nescu
folositoare
indicatori
pasagerii
rezistentei
geografice
revizuirea
precisa
imprumuta
imprimare
vizata
##unele
stiati
bili
otopeni
chipurile
dispute
arcul
conducta
inchid
slog
necesari
umilinta
cerinta
veterinare
anticomuni
varsat
##larie
plasarea
##deu
numitul
extrase
##ations
blocate
muncitor
strecoara
bn
ratiunea
capela
geniu
fructi
iubitori
ingrijorare
##sau
boca
pep
maritime
shakespeare
constatarea
grasimea
ode
##itia
multitudine
conectarea
citire
groasa
traversa
ronaldo
laboratoare
turnat
aproapele
medico
adrese
suprafetei
nocive
alerge
salariatii
notorie
istorici
bunatate
limbajului
tragere
scenei
tarom
supranum
petroliere
planurilor
lect
##ev
##ordi
roboti
carnii
diag
meteorologice
lex
incredintat
inviere
accentuat
##ntator
bunavointa
##olar
obsc
mesajului
vizibilitate
competitiile
##arb
atene
comport
spaima
jr
antal
potasiu
discur
inna
milosti
smerenie
##ian
eliminate
baraj
frontala
rezum
garzii
sapat
fest
deut
labiri
pam
sting
nod
tecu
vopsit
##made
##furt
##menti
aloe
gazele
trecuse
socote
chere
imprevizi
hera
biblice
strainii
now
##lile
maz
vid
##ulet
perseverenta
extremi
esenti
roland
operationale
piloti
marinescu
amplasarea
know
awards
ionita
hraneste
dorohoi
bulgari
simbolurile
vanilie
cona
puteai
probei
psihologia
##stiile
##mila
coerenta
##hur
chio
criticii
descarcarea
##mble
arhitectul
abunde
inguste
scaunele
veronica
##tooth
mecanismele
##dict
concura
atelierele
droj
##niri
patriei
panc
zgomotul
implinirii
documentatiei
teoretica
aripa
ospital
antreprenoriat
capacitati
fure
timpurie
publicare
##sey
##leac
evaluat
develop
publicatiei
interpretari
negocierilor
drume
diminua
separa
romei
transformata
bolnava
pang
sintem
tulburare
mentale
rache
inchinare
singapore
povestii
prezidential
subterane
metan
micutul
##giul
tratamentele
talente
cane
podoa
nucleara
dega
austriac
diminetii
delicioasa
raceala
solicitantului
procuratura
diavolului
esp
gemeni
senzatii
autonomia
purtati
cantacuz
contravaloarea
directivei
##ск
hans
##mismul
exactitate
formei
admin
functionar
socialist
deprin
permisul
##ritatile
actualizata
vedetele
bluetooth
recursul
desavarsire
utilitate
subsi
formeze
tigaie
##field
departare
retinere
inneb
filant
sectiile
doarme
evul
revolutionar
##style
anm
umerii
patrunjel
stranga
roage
##ctivitatii
suporterii
stabilire
gule
gasea
foaia
duhovnicesc
solutiilor
natalia
redactia
intervale
slovenia
cobor
marc
capetele
salarizare
gt
comandant
indeplinirii
studioul
determine
libraria
##ел
##tima
incap
proprietarului
administratorii
reinte
terminalul
melanc
report
tentative
educationala
nesfarsit
avraam
sama
executivului
##minarea
ratei
soroca
lee
planete
evaluari
indeaproape
aliat
##anale
pensionarii
episcopiei
procesarea
crescute
misterios
limit
borc
frana
deprinde
##sar
ocupatie
medali
iugos
##sburg
abordari
traumati
fumatul
##jez
excluderea
surprinsa
##riate
##mete
invinsa
lanturi
muscul
flagrant
condusi
solicitarile
computerul
fluvi
turma
manifeste
vint
arderea
bik
tractiune
opris
michel
chimic
guar
##ctar
##gent
sanctiunile
bant
nime
marturia
granitelor
got
taranului
dobre
spot
observati
revit
tehnologica
luminile
indeman
flaca
traita
cultivarea
rasplata
oficiului
ameliorarea
vizand
galbene
aparitii
abilitatilor
infrunta
##ны
adop
autoi
##pool
beneficiu
spalarea
uneste
zei
prevedea
taiati
redirecti
inlocuieste
brancoveanu
##inos
##limon
delicios
terminale
dezechilib
##itudini
doliu
coloanei
conectate
cannes
autorizare
ranita
fotbalisti
rechizit
zor
##the
furia
comuniune
bucate
preocupari
indemnizatia
calific
##lizat
1958
1200
demna
conexiuni
imperiu
introduca
143
criteriilor
umeda
frumusetii
varstnice
campaniile
platim
sustinem
urasc
cazarea
dest
banuit
caricat
##dera
rosi
colaboratori
implementa
rotund
acvat
maghia
adunari
sze
perfectionare
jar
ecosi
##sati
moz
echipajul
desemnata
inceputa
castigate
bolnavii
pel
portret
incurajarea
diale
includa
popoarelor
preponderent
ice
incita
doreau
cuprinda
scripturi
snap
oda
olten
upgra
animalul
wow
crezand
mold
masurarea
user
##vic
dispozitivelor
albume
meserii
caietul
optica
magazinelor
laude
fifa
subs
personalizata
calugari
gil
hc
tce
marginile
penet
vocal
actionari
fantastica
snow
luminita
oasele
cumparator
smith
petrecuta
costisitoare
caracterizat
restituirea
universitatile
poem
##inoasa
##omia
tricoul
chemare
depozitele
vaga
meritat
adancul
bitcoin
organisme
judecatii
pretind
vacant
atestare
cetatenia
consemnat
doamnele
##uindu
nedeterminata
sanctionat
sr
unpr
capitale
dezactiv
inaltei
formatiuni
##rioase
dezbaterii
tragerea
rosti
revocarea
amical
balcescu
eliminata
jucate
mihut
estetice
potentiale
tratatului
vocabul
dramatice
tand
dornei
aprinde
patruzeci
proclam
neptun
liberale
pantelimon
trecerii
lisabona
pseu
##jna
##gurata
regenerabile
##ek
##ziale
sufrage
##garilor
comportamente
recal
cauzeaza
incadrare
meteorologie
lipo
calul
confruntarea
##urnal
schimburi
suspecti
sacru
amf
geoana
##hova
dumnezeului
tensiunii
nationalei
modelelor
chica
intemeiat
amu
##siei
modest
belarus
asezati
##ometru
diare
maneca
autocar
retinerea
curier
incun
intrunit
cerset
proprietarilor
mario
intreprinse
remis
alice
diaconescu
tranzactionare
main
night
aruncata
generoasa
televiziunii
punctelor
selectarea
##ogene
descopar
pseudo
portofel
purtata
africana
certa
dezna
uran
133
valentina
##sse
gramatica
blocata
brazilian
proxim
##vati
acumula
laszlo
vizitarea
intunecat
zaharat
gan
victimei
licitatiei
complicitate
##ferice
##ciplin
lejer
disi
cerand
nuntii
vestimentare
ambalaj
maje
expusa
lucrand
restante
wild
idi
##hea
transportate
recolta
##vitati
cumparam
cardiace
energy
umbrela
autovehiculelor
altui
650
mareste
regulate
furtun
omni
##teni
juvent
incadrat
124
inscriu
calcule
vulc
sza
instrumentelor
executi
tehnicianul
apostolilor
tacut
geo
mediati
emotia
amenajata
obtinand
babil
redi
asistenti
tiraspol
anchete
premerg
sarbatorita
incendiului
portiune
##dane
binecuvanta
flan
infectioase
##rtie
contemporani
zeu
coordoneaza
metafi
##rio
pasapoarte
lectiile
zape
##ople
venise
neme
avang
##uela
atla
nebuna
naiba
doctori
postari
colinde
picatura
opteaza
legati
##ries
dorel
penitenciar
caracterului
banal
folk
##urna
pom
saraciei
traditiilor
##lov
deget
televi
energi
ceresti
animala
accesand
oferiti
prinsa
flutur
interpreteaza
powered
ranile
rezidentiale
paula
oceanul
rasfat
php
denti
burghe
##tim
ansamblului
irespon
##ktor
musulmani
ts
##ntesta
pictat
absorbtie
exprimarea
pust
rasfo
directorii
roch
rezervate
definesc
etal
slef
incotro
subli
mr
incetul
hero
##ritish
conducatorilor
cazuti
ruda
134
simpati
calculatorului
intunecata
autostrazii
niculae
ergonom
##util
otoman
daruieste
infati
mandria
144
zambete
furnizorilor
##anina
ajuti
proiectii
polul
precizarea
actualului
nisi
##hub
spatiale
anticipat
catastrofa
cuceri
proportional
pse
condiment
und
##sz
ascultarea
##uria
guvernatorul
deplaseaza
lucia
tranzactie
##greze
adevaruri
1966
trasaturile
titulari
gelo
210
apreciati
reeval
banuiesc
umarul
interloc
aducea
castelului
comi
portie
audieri
protocoale
laba
luminat
nutrienti
cama
intarziat
familiale
ingineri
intunecate
microbi
reducerii
colectiile
ione
studierea
pondere
##atarul
##bacte
reparatie
550
aprovizionare
british
ajungeti
##ctica
samuel
##ит
iustin
eseu
320
sferturile
boob
coeficie
##osa
arhivele
tradare
bis
biologic
crestinism
carbohidrati
concreta
detaliata
omolog
campina
starile
conforme
pulveri
asteptarilor
##neanu
dusmani
utop
dispret
comentariul
##tion
phoeni
reconfi
ruleta
solul
echipaje
blond
satana
patit
durabil
claritate
pelerinaj
delegatiei
incontesta
##vela
1953
normalitate
cear
saudita
##mintul
depozitul
raporteaza
revig
litoralul
studenta
conditionata
obose
accidentelor
atenu
fundatie
faima
mosche
##ditatii
relaxat
sabia
manie
coreean
##gina
trem
inteleasa
csa
##ques
modificarii
criteriul
##utor
ineficie
statiunii
gica
##comun
##xpo
campului
sinceritate
style
secretariatul
##uianu
##rama
##liana
regasim
cetateanului
piciorului
jim
instruirea
reglarea
respectam
ceremonie
lud
trenuri
sutie
neintreru
specificat
florale
comercializare
pasiv
tay
chineze
accentuata
inchida
cerneala
activarea
wat
inaltat
indemnul
butoane
adren
guvernamentala
##lish
gaina
scad
electrocasnice
pierderii
binevo
lucratorilor
##omul
##bului
gurii
retineti
curba
ebra
impecabil
judecatorului
religii
burt
inspectie
potentialului
tolera
folcloric
stabiliti
elimine
ficatului
claselor
juventus
derula
aripile
israelie
chib
tesatura
plangeri
ostil
pornstars
petersburg
##lux
mihaile
turzii
autohton
aspru
centenarul
oficialul
organica
manipularea
drepti
ofensiva
athos
generatiei
##pace
busteni
asort
##uk
neper
cojocaru
atip
arheologie
distinge
acom
##ogen
bosnia
fascinanta
singurii
facturile
migranti
##deanu
evolutii
filantrop
uzate
lacuri
neta
crud
phoenix
comandate
ferestrele
research
universitara
hibrid
##jen
stalpi
vizualiza
##ourilor
reuniune
mentiune
imperati
finanta
sejur
reintoarce
consens
gov
perceput
planu
continuata
rulare
bem
afirmand
trezore
conducatorului
forestiere
access
fructelor
ciment
##itam
bloggeri
consultat
mary
livreaza
insotiti
caracterizata
1962
brd
ghet
geamuri
cahul
constientizarea
plaman
cotidiene
##fta
miroase
neurolog
orizontala
##leasca
performantelor
colonelul
trasa
purtarea
anchetei
practicarea
floresti
marxi
raporturile
studieze
soferului
ss
intervie
informeze
masculina
vids
scoatem
catalogul
parametrii
ceha
proiectata
sili
crestem
zidit
reprezentati
##ntatoare
imbunatatita
sfintenie
contribuabilii
ignoranta
biologie
nego
renumit
pregatitoare
cantitatile
elaboreaza
creatiile
indruma
aveai
angajeze
javascript
referinte
africane
flutura
ladyboy
racit
draguta
tinerei
gimnaziale
sobol
standardi
demisionat
runde
israelului
deseurile
blogger
linistiti
tricouri
bikini
standardul
johnson
noutatile
prezum
furtul
achizitiilor
##bro
garson
decenta
gestioneaza
paraf
calinescu
##itura
expone
dobandirea
trio
1961
podului
prinse
chinezi
ispra
racor
bombard
pachetele
gazon
codreanu
semnalat
frigul
artificii
staff
##mescu
modifice
treceti
decorul
presedintii
gati
revenire
permitand
provocata
matusa
services
##magne
cosuri
executivul
oprita
discount
##luta
premat
##lizate
muntenegru
murdar
##ficand
echilibrului
abuzul
microf
bucatele
organizam
interracial
sentintei
toamnei
necazuri
rt
nesigura
##inism
urmei
finantari
##aresc
industrii
egalitatii
monitor
ghive
viziuni
generata
clipul
semnifica
arhiepiscopiei
eliza
hotaraste
ficatul
credeau
incheiata
##listul
avantajoase
##ativul
cantacuzino
centrelor
bogatie
vitaminele
colaborarii
young
lobby
respingere
savarsita
incaperi
insarcinate
motto
146
##dius
portului
nico
catalina
deschiderii
insufle
incruci
limf
auxiliar
minora
##moder
rauri
##lizata
vizitate
1937
anxiet
imbolnavi
##ciala
##ulei
##inand
##onarului
calitativ
infrangerea
dezord
viceprimar
manichiura
nan
steve
protector
rotunde
rud
calatorit
##bian
zborului
dumnezeiesti
fresh
##vy
regie
patimi
enerva
concurentii
tarifelor
bibliei
grigorescu
privea
system
campionatele
antrenori
cubi
vehe
mp3
continental
tronul
dick
##uve
sparge
neconte
vanzatorul
angajatorului
crearii
blocurile
##ieta
1914
depresia
##olan
antichitate
cosma
completeze
harului
birourile
creezi
condamnata
mid
elvet
##wan
migdale
##urosi
alature
prezentati
aeronave
expira
suita
157
avocatului
##uitorul
modulul
participati
sanctiunea
##hd
cariere
cititorului
gandindu
crescand
exf
sclip
autospeciale
zf
prese
stelele
preocupati
##remia
terorism
usturoiul
amni
generatoare
afecte
picturi
##hol
lepa
nadejdea
burs
inchinat
incendiilor
auriu
reite
relaxe
farmaceutice
ajunsa
mortilor
stingerea
navigatie
chicago
restaurarea
atotpute
serafim
##ssi
inchisi
portocale
alcoolul
stampila
##ofa
chris
framanta
eliminati
damian
compres
anuntati
insti
ducand
guvernamental
##scanu
167
gavriil
orientat
barna
spiritualitate
nebunia
grin
agit
1936
spana
cluburile
ingust
auro
incol
get
cadastru
botosane
schimbati
dispozitivului
fair
specialitatea
concursurile
lumineaza
recompensa
lcd
adversarii
pastrand
ochiului
vorbiti
fard
##opat
denumite
lom
offline
incalcari
newsletter
mares
shan
head
complementare
sete
probabilitatea
intii
##alismul
sli
adunati
parazit
anticip
defavorizate
poluarea
incurcat
nelu
diversele
trairi
transmisie
url
exercitiului
scufunda
belsug
oprescu
eja
##osta
##bn
greutatii
adormi
prindere
absolventilor
respectand
sosete
invart
##testi
toy
lansarii
kids
theodor
tuns
sterse
colonel
search
decurg
##undat
dezvoltam
key
presiunii
patriarhia
disciplinare
lacas
mase
valurile
impozabile
adio
alcoolului
popularitate
artiz
pregatirile
plimbari
prioritati
lamurit
situl
penali
pregatea
apartamentele
vaci
old
motocic
domnii
fabricii
suporteri
sustras
comenteaza
consacrate
nimerit
seriosi
poruncile
tert
##ofm
intretinut
kate
izvoare
friend
palt
comercializate
amenajari
eliminare
mamali
##ciunea
nepotul
##rer
educarea
cran
monetar
ajunsese
bastina
after
intreruperea
asaza
selecteaza
distractia
intalnesti
confunda
leadership
corinteni
imbogatit
tutuianu
anom
modei
specializati
percep
на
libertatilor
inspectorul
##four
emig
miel
moderata
primordi
##grada
intentiile
imparate
pericole
dilema
alcatuiesc
##zirea
##ptic
conventii
impartita
##strie
discerna
evacuarea
bulgar
transferuri
elu
##pel
amintite
image
pion
stem
intrebarii
evreiesti
presedinta
fereste
frunta
festivitatea
mijlocasul
company
avandu
urmarite
curatenia
1957
prabusirea
scriitoare
deshidrat
inaltarea
marturisi
variabile
hui
metale
cartofii
candidatului
argumentul
contractant
pastrare
pia
kha
maniu
polivalenta
instituit
semestrul
##sad
silita
semana
rezolvata
psihiatrie
strabate
##nicie
ruj
aniver
trolei
cozona
kol
asez
zeul
promisiunile
constip
interventiile
monetara
interactiune
mitropoliei
aeronava
budi
referim
ez
##lescu
exers
substanti
divul
alerga
expertul
filozofie
multumi
datoriei
cunoscutul
familial
decre
coreeana
conju
frontal
posted
femini
emit
bolnavilor
columbia
argent
pomenirea
berea
##bourg
vanzator
1952
pseud
consistent
alexandrescu
inadmi
page
sanctionarea
##meu
ghimpu
bunei
graj
prevenirii
plangerea
tranzactiile
europarlament
dansului
emanuel
##voc
inglo
##ritei
intrerupere
descent
interpretate
neincetat
sacrificiu
incub
aditional
inchiria
centralizat
croaziera
camine
loz
somajului
berbec
##sin
sucuri
cambridge
baruri
incuvii
clopot
buletine
profile
absoar
oile
sesiunii
##lendi
inconstient
rezonanta
justin
ciocan
palme
temeinic
darui
tramb
topi
270
suportate
citita
pagub
lacat
greata
institutionali
atribuite
handjob
poetic
romantice
troleibu
cincilea
acceptare
dacilor
institutional
vinurile
comunistilor
sezut
##pg
rationa
iesiti
cerebrale
##ican
purit
infilt
monden
stapanirea
odihneasca
autoturismului
printului
malta
##то
traduse
manda
vecinatate
boboc
progrese
convenabil
proiectie
henry
asistam
compozitor
catifel
coordonata
perimetrul
denis
cupe
garii
intarzieri
declararea
condimente
provizoriu
partiale
pesedi
sindicali
bv
insule
semifinala
distor
##au
genti
orchestre
prelungita
##gena
##wski
stator
valoroasa
editare
urechea
csi
dica
demiterea
concediere
##desc
meteorologii
caiet
poetica
standul
preocuparea
eligibile
vreunui
zaca
saptamina
completate
obligativ
imnul
semifina
extinda
audiovizual
evoca
predeces
rasul
indign
ornament
descif
leul
##ntez
traind
marche
##andeza
intocmi
temelie
compilatie
daram
227
260
saturn
teodorescu
##unere
afro
acumularea
iulius
suscepti
sirul
fuzi
flexibilitate
scen
precoce
##38
renunti
considerente
isj
tirziu
dinte
inselaciune
kal
constructiile
kauf
confruntare
plug
ntre
##menii
completati
conceptie
crap
exempli
explora
papi
targuri
interpretata
avocatura
vladimi
senior
280
inspiratia
##fort
cruzi
inscrisa
contestata
demoni
##pra
##inel
stricta
timotei
itine
iris
perechea
desavarsita
medicamentului
varfuri
conexiunea
blugi
##hide
teritoriile
1963
dona
simturile
build
nest
infirm
nervi
taximet
sma
amenintarea
##dot
##rism
altei
mist
civice
absorbtia
preciza
lotului
phil
##disciplin
unilate
vrajitoare
impartaseasca
##tismul
ziarele
necred
cva
nedorite
splendi
ortodoxia
bay
##oritate
randuiala
hormoni
masei
farmacii
mcv
napole
acuzata
intimi
glez
imparatiei
gabi
taiet
prenumele
121
##37
minunile
blind
recidi
latimea
##rnici
antrenat
opriti
ochelarii
desemna
jackson
silu
##nova
receptia
calendarului
dlui
##rion
traum
amic
ursul
republican
##ofite
reorganizarea
antura
meridi
televiziuni
transcen
inlocuire
teritorii
##uman
infant
atacului
ruseasca
paraseste
pasaj
deschideti
sesizata
departament
sporirea
concord
intime
eficace
uce
tigan
ironic
conflictele
stimulare
##atale
despagubi
ingen
##ates
structurat
cantam
nereguli
ltd
##hial
distinctia
##urope
banche
intelegerii
##sorul
registre
prezidentiala
a2
sensibilitatea
1933
pensiei
136
unguri
poteca
##mentarilor
circumstantele
botanica
atribuie
diabetul
pandurii
apasat
reconstructie
wood
vremurilor
multumeste
vadim
comisar
##xis
frecve
majori
vesnicie
injunghi
masuratori
citeaza
fs
punte
##odie
nam
restrans
##mane
israelul
judeteni
cantona
##risor
nasca
coalitie
compasiune
imbat
scrieri
##tics
trezesti
dare
vrajit
competitiv
contraind
varsa
ambelor
inscrieri
neasteptata
bisericeasca
bunicuta
confectionat
vaselor
daruire
##kyo
agi
rezolvate
binelui
indisp
mentalitatea
salubri
roua
intrevedere
eye
##ked
paras
comut
blanda
1959
##cean
imprejurimile
irevoca
miche
consiliile
acceptati
##hard
sloganul
biletului
romanti
ajusta
nesfar
dusi
calificata
respectati
sple
cabinetului
capacul
##ptiile
cumparatorul
repartizarea
##icea
conforma
negocia
clujul
luptam
constituire
formularea
testate
##unesc
supun
sfecla
insuficient
wolf
puru
crisan
dreptunghi
inchirierea
hur
##umelor
materiei
fagadui
neac
ambie
uitandu
transilvane
1955
ecumeni
confectionate
villa
gastro
omoara
docto
generalului
indeajuns
bage
creare
confirmate
meno
tiran
continand
jucariile
toro
magn
##catorul
gandurilor
numire
terapeutic
fantoma
way
izvoarele
rastignit
atragatoare
voit
surprinsi
liliana
concediul
rigoare
enorma
autoutil
beneficiarului
vehiculului
castigul
afectiunile
pompierilor
nuantele
corporate
prig
exclusiva
usii
stiai
point
devota
lecturi
guta
roger
belgrad
##stinale
portretul
vorbire
spiritele
saci
sarbu
repete
##scenta
moraru
##as
bosch
medieval
##cop
arbu
identic
atacurilor
castigatori
facilitarea
##alista
valorifica
1942
salonului
endoc
narci
atrasi
sindrom
infanterie
recupereze
caravana
##bl
enorme
linkul
recit
##giilor
##menit
hus
orale
veritabil
ite
adormirea
terorismului
anulare
microbuz
lanseze
soiuri
asumarea
descarcat
##electrica
clarifica
##gica
bulgariei
preferinte
ziceam
machiajul
##nc
infarct
geneza
sfirsitul
bulgare
infectiilor
sfintit
incantata
donatie
tavan
sulf
publicitatea
motivati
castigam
ola
##zind
platou
modesta
afisata
readu
##ow
pastorul
##icult
acati
opel
inceperii
savura
bataia
igno
declanseaza
cadastra
hala
##lora
renunt
traseele
privatizare
echivalenta
reorganizare
##raft
danut
vagoane
masterc
cerurilor
##bin
genericul
preparatele
musch
preocuparile
comision
##rise
paraschi
##ugh
mike
##ziilor
ilustreaza
##ches
carami
perife
optimist
costache
bucurosi
acute
##gilor
tav
convingere
validarea
batranete
papei
incalzeste
incheiet
suferintele
buru
maga
curga
dp
balne
mergeau
rambur
mancati
##harma
durate
alf
teologia
schimbata
analizam
inru
lucrate
corn
amestecati
nefum
racheta
monahi
revocare
##inciosi
elibereze
aventurile
cereti
masac
violet
##dri
nerabd
informative
##ditatea
inculpat
##row
##olare
teologice
academy
seceta
convine
diplomatic
##inici
indicatorilor
prelungire
motiunea
marginali
##zea
fiintele
defe
tratare
plimbat
protocolului
omoare
cercuri
dui
uterin
##mark
balcani
incarcarea
luptator
##niul
detina
ambalaje
declansa
misiona
sondaje
prioritare
##ptarii
coliziune
colaborator
inconjurata
vehiculele
sarbatorim
recompens
resping
caracteristice
mansa
miracol
pcrm
##econom
stramosii
cartiere
grupare
trofeu
pistol
coaching
adolescentii
##manuel
demonstratie
##memb
taiata
estonia
fraudul
simpatic
invatator
monde
energii
pnd
pastori
ratac
maramuresului
celebrului
inregistrarile
ped
titu
vrajmas
fixare
jong
dotarile
concertele
aglomerat
funciara
liceal
ferment
necta
despartirea
estic
ioni
sufe
cartura
interactiv
gavril
procedu
pachetului
##zabile
indrazneala
facuti
desprins
atractiva
insemne
silvice
mada
dorind
imobilelor
plai
secretarului
particulari
spri
cioban
##oche
mapn
marsul
transmi
dumne
rapita
partenera
golurile
plen
forbes
perspectivele
##otei
implineasca
imagi
dacii
edward
tapet
1954
prezentarii
stramo
neguvernamentale
euf
manifestarilor
reinnoi
degust
##tiu
hre
bret
carc
matemat
##bina
##sens
dovle
acceseaza
sonora
tortura
agentiilor
a4
cantand
adaptata
istorii
misterioasa
sufletelor
##arhi
specificatii
##listii
##urca
miez
delia
mihala
regizorului
actualei
ierarhia
##stadt
##atare
dispretu
reportaj
nordica
gravide
conecteaza
calugar
institutionale
aluneca
contrare
volumele
##jezi
sag
comit
##campi
1943
covor
suspiciuni
##sale
socant
etnica
sinele
intocmeste
tabu
dinamice
puiu
##rau
cardului
contractante
abundente
contradictie
##rante
anorm
designeri
usura
carta
laterala
##inment
completari
incins
vizualizarea
parfumuri
garantate
obraj
expo
scriam
interfe
aradului
##rald
pururea
imagineaza
progresi
insumi
habit
usuca
tiparita
tecuci
comoda
emotionant
lingurite
rami
punandu
genetice
tokyo
zeel
raspunderii
fragil
mitingul
atlantic
realist
multipla
lansari
teoriei
marita
122
frankfurt
concesi
adapteze
##preze
##nicia
laptelui
dga
comori
initiate
singuratatea
philips
uitate
pustiu
muschilor
dragan
managerii
difuza
domneasca
smile
cadoul
informational
mugur
pintea
joe
recordul
semenii
radicala
##uzi
atentat
##metru
resusc
##ocul
law
ramen
insoteste
cabluri
##olitica
sfatuit
dero
sorina
ili
vanatori
acer
fructul
copacii
teodora
bisericesc
firele
bibe
umede
ierusalimului
instalatia
naviga
bloom
frageda
orf
incomplete
##teaza
altarul
ruptura
aderare
##svsa
mld
cugir
confede
surorile
rafturi
tcedil
inlocuiasca
banatul
antisem
palarie
noptile
ioa
inoxida
demonstratii
##ex
evaluate
##ozei
132
textelor
sincere
utilizam
elite
masturbarea
ns
integreaza
trezeasca
denota
montan
hartii
pilotul
hong
##anez
scriem
phone
adrenalina
surprinse
hemora
socat
##oiul
linux
sustinea
voiau
trebuiesc
##ograph
socialiste
indreptam
insemnate
##arfe
traseului
inject
majorare
charlie
consumatorul
tempera
extrage
minerala
strategiile
tragi
contraventii
superc
gent
buzunarele
ratele
cafenele
adversa
comprom
urmarim
podg
nema
energiile
casuala
spusele
ejacul
oleg
zeilor
neate
retetele
montare
ramona
sindicatului
patrunda
##uiam
curcube
tism
paian
contabila
caracteristic
televiziunile
humorului
4k
##tube
simbolica
cereasca
turist
basm
razbunare
obraznice
cuvintul
sparta
literele
dizolva
instaleaza
menopa
acumulare
##seta
rezidenta
protestatarii
discursului
verificarilor
incasari
##olitic
explorare
clujeni
regiunilor
scheme
grei
suferinte
insulina
bucatar
##fini
primea
intorci
sampon
cauzelor
imprejur
bamb
faradele
spalatorie
prezentand
eterna
urmatori
abat
antivi
difuzata
initiativei
allah
faimoasa
saget
traite
lagare
controleze
principali
soferilor
rezervele
actorilor
brute
##nteza
subofite
elaborare
plastici
inova
sanctioneaza
karl
bee
corpurile
gaga
vira
grecii
confirme
abateri
##aliste
aurelian
diagonala
generic
teava
fundasul
##100
otelul
##zanta
turcii
##andesc
norocos
vizionare
scurge
aprecieri
##fiant
devenita
miile
sui
insele
iubitoare
impozitare
coincidenta
epide
competitive
##nara
fraze
remedierea
taranii
ardealului
rezervarea
afecteze
tensiuni
tururi
parasche
rs
oaie
emotiilor
reformei
metodelor
corespondent
paragraf
mainii
cultelor
conflictelor
studentesti
evolutiile
tarna
sterline
tigani
realizezi
depistarea
bonusuri
multiplic
nel
campuri
strecur
obiectului
nesanat
succesive
alunga
incrim
criticul
agentului
deszape
obiectiva
bazandu
sezoane
cetati
aeri
buzunarul
reputatia
mitul
vegetal
colesterol
minoritati
confidentialitatea
hort
cua
grai
palp
deputatului
necorespunzatoare
sist
sustinatori
imprie
urata
medicamentul
portiuni
schimbate
##covi
anula
demnit
naturali
corupti
imprimanta
##gor
consolida
debitorului
dusmanii
dezastre
##на
firii
negat
mustra
iov
kom
priviri
arhiepiscopia
pisicile
impresioneaza
omagi
##rona
seminarii
genului
traiau
trenurile
arheologic
##biti
##gheta
##inson
pdm
organului
investeste
##ventie
zmeura
roadele
corona
curajos
race
inculpati
durerilor
clinton
imprejurimi
cuplurile
##hete
viitorii
nelimitat
tineretii
crat
was
sacul
pamantesti
umplutura
tute
##gic
declare
subordonate
propunerii
isarescu
emerge
##nteasca
##onim
intermediar
##anate
succese
montre
reglementata
stiintelor
puii
unchiul
radiof
salbatica
inscrisuri
dorintei
sustinatorii
autorizatii
usca
##ctil
##ish
stereoti
norii
sanda
##cast
dormitoare
tranzactiilor
kaufland
specialistul
ucrainene
martiri
speciile
co2
enoria
strangere
urc
eseuri
coanda
##jloc
##nz
##ovski
hotararilor
upgrade
destui
blen
dioni
fiindu
pixeli
decese
product
sd
vel
impartas
zinc
sufere
##rinei
uneal
veselie
cry
##riac
accente
infiintarii
##ologilor
salarizarii
indemna
sociologie
lesne
dambov
bov
liturghii
viktor
exploatarii
sindicat
grasimilor
prevad
jurnalista
unealta
ridurile
##roomla
ramenroomla
indeparte
elvetian
maximi
##iu
##ctiuni
surprindere
asemana
prefata
##rghi
fifor
##ctarii
##42
##onarilor
borcea
##off
costumul
inox
##ureanu
acordurile
sida
bust
plasata
metafora
sed
neins
rodul
rezultand
##light
abonamente
iesind
inversa
piti
##baga
terase
concedie
sinodul
reclamant
hartia
baca
coloc
etno
repertoriul
antise
premiate
prezerv
stick
rambursare
concesiune
subliniind
fascinant
echipamentului
suedez
gli
ploile
origini
agresiva
aniversarii
neconditionat
##46
holul
vasc
marja
confortabile
##85
creantelor
episco
enterta
carrefour
pierre
turbo
staretul
goga
inaccepta
regat
glucoza
views
ging
educa
imperfecti
portre
calendaristice
specificate
superstit
330
##mad
xvideos
simet
multicultura
##lines
aprobarii
clasificate
obstacol
uluitoare
propice
vocile
luptatori
emisiilor
adela
profesionistii
bancara
cinematografica
frumosul
##opla
##olm
consultari
imaginam
darius
presedinti
revan
arthur
pasajul
flaman
glande
arhimand
neinde
albania
our
dependent
suceveni
parametri
grindina
creditare
doctorii
preliminare
infractiunile
sarbatoresc
tasta
rufe
asemanarea
nevinovat
casnicie
liver
iluzia
││
priceput
artile
##hil
sarcinilor
cercetatorilor
##pesti
compre
sexe
metodologiei
nistrului
executata
disperata
##usele
yu
pirami
bucuriei
##opter
pasarilor
ruinele
##alizeze
jac
ratiune
stadionului
colecteaza
constantinop
gsp
barack
lubri
##wal
##cioasa
tags
urate
volvo
codurile
cules
populi
dumitra
consumi
##dacin
nemil
combat
bateriile
opa
stralucit
##icesti
invred
imita
garaj
stocarea
culorii
ds
##beth
hist
kazah
imig
pietelor
cuplului
vaduva
livada
tactica
vanzarii
journal
cutremure
##strau
auzind
continuitate
expun
balsam
israelian
cantarea
##lipi
contestatiilor
ipocri
suprafetelor
vicecampi
confiscate
merite
mobilierul
tronsonul
minunati
comercializeaza
principalelor
coroane
reintegra
ratificarea
disciplinara
gratii
225
##bari
incepute
1929
deteriorarea
streaming
destinului
specia
recalcul
realitatile
development
zoom
1923
capacitatilor
pretins
curierat
lector
olga
afisare
scopului
tesla
vanduta
reinno
tape
pardos
avoca
fantastice
horror
block
##aliile
sediile
transparente
dezide
##harist
filoso
people
telefonica
parascheva
rutieri
ecumenic
campurile
zburat
vrajma
prudenta
vascular
rafinat
tineretea
sesizari
##ners
kra
4000
##zatorului
##niului
calificari
uciga
inexplica
inspirati
buzaului
tesutul
kel
##insi
nodul
loredana
isis
nefond
nal
##pf
neat
dantela
chiri
retorica
rabd
zbu
tiparite
sigla
##ando
paun
schitul
nemar
ingerilor
mistre
##shore
kur
examenele
indone
##dicale
incetini
nativ
inspai
indemnizatie
maiorescu
horea
admiratie
marire
##mu
abonati
##berry
schele
sefilor
##ntrul
reprezentantului
anta
zvonuri
ghica
prestatia
functionalitatea
batea
cobora
##bic
hall
economico
traducator
burdu
parcari
nick
eve
inaltpreasfintitul
traiti
claude
inmormantare
secventa
indepartata
vinovata
ker
injura
cardiac
detinea
bateriei
bacteriile
paharul
inregistreze
monitorizeaza
incepind
##rex
##ол
herman
impiedice
ministrilor
designului
basc
##nicii
angajate
reintre
institutionala
tatiana
challenge
porcine
motociclete
agata
vegas
amanarea
country
##ograma
brasovului
exta
ingenun
egiptului
kong
sustinerii
pasaje
raportarea
dezmemb
taramul
cartona
prioritara
actorului
compatibile
orbit
agitatie
cuviosul
contencios
##risa
capsule
stockh
imediate
denumiri
obligativitatea
comisa
lupa
protestatari
justific
urinare
cioran
inelul
broke
furnizorului
salariat
yky
##etul
emiterii
mihutoiu
milit
salutat
consulting
repri
armament
leoni
##sil
beneficiind
grosimea
furnizarii
aliatii
##tera
iubiri
goana
dealuri
reva
furate
##steze
peria
impartirea
ingusta
##watch
1928
biruinta
brown
geamul
construirii
distractive
gustoase
comenzilor
thailanda
contrafa
destepti
3gp
pais
investitor
licente
inele
initiere
procentuale
manea
lichidul
siha
organismele
tromb
celebritati
transferate
aplauze
venez
abuzurile
geografic
numeros
consiliilor
eronate
prioritatea
grupei
demararea
aseze
curriculum
natiunea
ardelean
mingi
##categ
antrenata
pomi
premisa
demonst
messi
dedes
dezavantaj
croi
lidl
putna
##rp
albastri
##gers
misiunile
integritatii
zgu
derivate
fazele
131
introduc
prestari
constatam
simptomelor
multele
acordam
1935
##ptice
amendat
cizme
doarma
axat
memorandum
avocado
opusa
nora
hidrogen
statiei
masajul
intrari
pastrata
##uge
profilului
brusca
intensifica
rascump
munceste
##culescu
contractanta
integrale
##ат
simplitatea
europarlamentarul
##cio
instalata
aplaud
poloneza
calom
dreptatii
pertine
gimnaziu
informam
dedesub
pretextul
boris
scurs
dinoza
##tindu
##unoaste
lenta
guverne
utilitatea
fermierilor
desprinde
potabile
prescriptie
euharist
componentelor
##seca
arunci
contrazice
profesionalismul
bast
constantei
sexdates
razv
ingrijorat
convorbiri
##ceput
secvente
titularul
solidaritatea
##eale
inoxidabil
placinta
digestive
timpuriu
##hani
reclamantului
intersectie
neplacuta
##oon
preaferic
atar
hipno
contrac
bucurestean
pornim
mak
neglijenta
apelati
preluare
colesterolului
nae
originara
##lana
alegerii
realizati
eliberarii
urmarita
wei
lavanda
nicic
cursele
fractura
raspandite
elenei
peretilor
##oida
autode
pictorul
serverul
chirila
142
coboare
trotuar
desenele
cronic
afectiunilor
redactie
domestice
absolute
mentinere
dumnezeiesc
secundara
infrumusetare
metroul
twe
farmac
rezultata
variabila
fascinat
vb
##stop
editiile
intemeiata
##iteat
retina
pasagerilor
##leta
##aneste
##kas
francezii
thril
splend
ont
culturilor
calculate
retrag
maestrului
sadoveanu
golden
inghitit
portbaga
156
sesiza
consultativ
##gru
paznic
studi
canalului
indicatiile
orasel
##dru
laturi
analizeze
baietelul
participand
bijuterie
orientate
dezbaterilor
admisa
respectivele
gur
##itudinii
holi
xia
titlurilor
contractual
fotbalistul
devenea
##lenta
notificari
intimitate
semifinalele
comemor
vedeau
##maria
grabi
rotaru
sevil
apuse
channel
invataturi
escorta
iesea
adancimea
tupe
sindicatul
##devar
reproducere
##hz
compuse
tehnicii
lucrului
psihologul
imparati
comic
dobanzi
separarea
inles
##metre
adeziv
garantare
infiinteaza
foamea
maneci
juriu
izolarea
gul
cuvint
implinire
comunele
particulara
achizitioneze
responsabilitatile
castigata
weekendul
##cap
covorul
incorporat
##oide
surprinda
satel
simbolizeaza
incendii
solicitarilor
transformate
puiul
distins
cheltui
depistate
ametit
respirator
strasbourg
casatoriti
1800
coeziune
prestarea
emmanuel
napoleon
176
##mintelor
consumata
susan
explozia
1924
pedepsit
demonstrati
vladimirescu
administrata
reducerile
1951
coafura
tigare
temnita
invecinate
vr
wel
polirom
cronici
feat
vatican
notifica
ghimbir
vechimea
##ziene
topit
aaa
distinct
##36
elevului
poluarii
tesutului
##ogram
oaselor
precizam
qual
difuzate
dificultatile
impache
##bos
maratonul
lacrima
sarata
rector
incetare
faimos
sz
1921
madu
asimilate
concentratie
##ridon
##tarie
petreci
chiril
proteina
eficacitatea
##lava
atestat
nascatoare
filarmonica
radar
vesele
epic
ispita
trilog
serialului
babe
consultatii
##usuri
vestimentar
college
chinezesc
adoptarii
zol
meleaguri
drea
inovator
##hr
corel
episcopia
cinea
declarati
fostilor
suprare
pastrezi
scala
##31
romilor
avizului
b2
##zzi
clujean
cuminti
diferentia
sloturi
255
ocuparii
stockholm
totalitatea
indoieli
cartof
refugiu
bizantin
ghinion
dezlant
iluzie
actionarii
contestatia
iertat
mizera
pricin
spin
##nad
romance
auste
sacrificii
##atoarelor
directoarea
amfiteat
castigurile
naturiste
sosul
cercului
##camp
baciu
plaza
relativa
interi
grase
salarizarea
contribuabililor
jandarmeria
1934
dacice
scolarizare
cuget
rampa
identificati
dealurile
calator
emana
bulevard
##peli
operate
##hna
cotidiana
stagiul
zom
magnet
aderenta
editat
libertati
biscuiti
agresive
##iezi
atarna
citeam
161
east
antonie
emisii
mituri
dominanta
incasate
##celul
boy
diagnosticat
mozaic
ciop
renumita
someri
##inis
bucovine
proemine
hacke
irani
respondenti
explicatiile
tramvaie
bici
vreunul
compusi
ajutand
blocurilor
##roll
dirijor
onori
ambalajul
ponti
ortope
realizez
optimism
navei
intravil
mocanu
sabie
sv
parlamentarilor
atace
predicti
compartimentului
bagaj
expozitional
derularii
infatiseaza
fred
armonioasa
carn
fideli
anne
dovezile
neglijat
rupa
salate
portel
jignit
rame
biologica
serile
periodica
ambul
marmatiei
monot
dezbatut
##band
ierte
eliberati
analfa
gusturi
desemnati
##genul
verdeata
dureze
atletism
capre
categoriei
plafonul
cistigat
perceptie
prietenului
schita
protestelor
stresa
fixeaza
corectitudinea
safe
arbitrul
pardoseala
romexpo
spaga
indrepte
marasesti
ambianta
sonore
technology
inteligenti
retrospe
formala
justificata
tristetea
lenin
bari
aspectului
europarlamentare
logistic
reintal
senatori
##ced
ridicati
rationala
escro
hype
bona
internelor
cantecele
##ovei
##gus
visam
inclusive
indicatorii
fulgi
regleaza
##zici
calculata
satelor
gropi
insemnand
intrebarilor
nervoase
telegra
chiriac
kosovo
cumparata
cumplita
sectiunii
reclamatii
interpe
indicatoarele
zamfir
originalul
achitate
##cav
relaxati
avionului
urez
gherg
##galiei
mixta
sfatului
reciclare
contat
zambeste
ciclism
ilustra
presupunem
detasat
sperand
gestionat
arhitecturii
recurge
shar
duo
mansarda
tiriac
cadourile
atana
olteanu
secui
infas
culese
acompani
ucenici
orientata
child
mostenitor
politico
mapa
disparitie
varfurile
##vea
lungmetra
##tes
chelsea
mizeria
##diana
prune
tesuturilor
icr
casuale
##ganul
identificata
purtare
inmormantat
##uitoare
rupte
pictate
liberalilor
irig
incurajare
vicar
##mera
raspundem
##dence
infectia
surv
videos
curentului
bauturile
leac
imput
premiati
##roizi
gresesc
chirt
ceremonii
rotatie
carpatilor
avocatilor
nectarie
##nts
teo
grasa
taur
vizitata
cercetati
##protv
respectata
resturi
vaccina
##vez
localizat
aspira
##catie
##uiat
zimb
urcam
jones
ede
lilia
supt
prietenoasa
ascensiunea
dumbrava
pastrez
aplicabila
pronuntate
##ufle
oftal
determinare
telescop
pomenire
concentreze
ursu
rds
onorat
municipalitatii
umezeala
magistrati
oferea
specialitati
adreseze
##rey
veacuri
gradinii
aminteasca
salas
lichidarea
trupurile
intriga
inghetat
tiff
mecanismului
##shot
indreptate
provoace
considerabila
georgiana
cunoscu
olteniei
cee
municipala
scrisorile
intrerupta
creasta
arteriale
stirileprotv
zdrobit
neveste
admisi
obligatiei
dezinform
##meze
bradul
furnizeze
skoda
##bla
##tex
pumn
concluzionat
voturilor
blocati
vehiculul
umorul
aplici
castigatoarea
bunat
impunerea
apreciem
convocarea
##jata
exercitat
dani
muzeal
articulatiilor
ecli
##────────────────────────────────
ferit
ghioz
occidental
name
porsche
importantei
1925
liverpool
rica
accelerat
##onezii
mesia
buf
##95
fixarea
cnas
##200
bombe
deschizi
suflare
##hana
invitate
infiinta
covoare
letonia
uns
##difu
##ptata
##ranul
##bec
##lesti
creng
calificati
acoperiti
joase
coste
##kg
randament
torino
muzeelor
facu
hiroton
sofisticate
nomen
diabetului
interog
attila
juncker
porneasca
unitara
consistente
puz
traiul
##merce
pesi
lucrau
promisiune
fundalul
decizional
elementare
gf
simpozionul
simtita
sib
aseamana
stagn
stein
##ssan
revistele
ratacit
##oscop
##house
agresat
dominata
sanctiunilor
francisco
austriei
soiul
controverse
filarmonicii
lichidare
sabl
pescuitul
fiction
##rofe
electromagne
traversat
ik
##discipl
##led
inaugurata
iranul
nespus
pasarea
1927
aptitudini
##niz
##oliului
pungi
prostia
mineral
pedagogic
necul
offshore
topic
civilizat
prutului
imprejurarile
generoase
islanda
bp
pupa
epuizat
vibra
dumnealui
permisului
pasionatii
##lute
##oterapia
indrumare
nemultumirea
contradictorii
notificarea
senzual
nespe
comercianti
proiectia
anuntului
##lezi
notari
orizontul
stana
sufoc
palpa
dovedeasca
plictisit
##ration
jucatoarea
penitenciare
gaudea
maluri
cantitatii
sperantei
hectar
statiuni
bagajele
cumparatori
fbi
cutare
antia
##rmea
napoli
ajungea
concertului
cortul
indure
aflarea
aglomerate
1922
spoved
regiei
folosea
poeta
disk
multumeasca
avant
combinata
fetitei
bombarda
atotputernic
profila
##gane
naut
##ghie
planificate
wit
adverti
raspandita
##zina
pipa
ceruta
spiridon
predau
azer
temelia
invocate
progresiv
apeleze
edge
maner
refugiatilor
inutila
elicopter
supere
vigile
seminarului
analizand
substrat
exterm
democratilor
bagajul
trecatoare
motiveaza
suspendata
bond
punctaj
calam
subtile
liniilor
antreneaza
rotunj
monumentului
experimentati
renovare
nd
##menul
drobeta
creion
admise
invitatul
exer
##ularii
inventar
intunericului
south
mutu
prenume
chrome
##bach
metamor
thre
cantitativ
densitate
cotei
proceda
cultivat
chiajna
meciurilor
dictionarul
suciu
izvora
preliminara
##pub
vorbeau
decala
bursei
manastirile
inflamatia
ruje
doisprezece
asistentilor
profite
olandez
legitima
consola
refacut
incurajeze
chak
renumite
banica
emisiile
ingrijorati
racoritoare
prejudicii
autobi
rectorul
security
plesu
amendamente
odihnit
riduri
practicate
diasporei
##veaza
stephen
gaudeamus
procedeu
campioni
gazdelor
sfirsit
stor
vestiment
wizz
telina
tonuri
constructorul
bow
mihalache
restaurantului
marturisirea
dovleac
penul
subur
303
franciza
diamant
flam
ispit
##heim
adventi
##hnea
##cela
leonar
ocole
foloseau
fuge
autobuzele
##mintit
##ntiar
perla
elo
romanele
depasind
zeita
sportivilor
hranesc
recreere
citez
administratorului
sprijinului
##rix
logan
spam
procedeaza
mafia
genele
globul
sluji
sperantele
brio
route
execute
gravitatea
water
prevedere
patura
intareasca
photos
##dist
##uss
rast
spionaj
##pati
perie
pozitionarea
nemijloc
fortare
cercei
borcan
mostre
guverneaza
versatil
maya
descarce
manualele
imunitatea
arit
intelegeri
sindicale
##zatorii
pestii
asiatici
##ка
optimizare
##mez
stol
crez
disperat
conjunctura
intestinale
elveti
iluzii
intelese
actualitatea
patriarhului
drapelul
aroganta
contestatie
inchipui
trasatura
list
hepatita
1912
intrun
lipici
economist
ninsoare
tranzactia
ibi
##px
rahat
pumnul
eri
gem
sankt
rume
atinse
exclusive
carm
##fet
mentionand
gelu
haidu
contureaza
indraznit
captus
infern
spo
administrarii
refacere
universitatilor
transformari
pruncul
oni
aflue
##spot
##dad
primariile
##ated
joburi
adapteaza
shemales
##look
##cp
##cted
oglinzi
blues
geamurile
radiodifu
asociaza
indragostiti
semnalate
exemplele
squirting
genoci
opun
numeasca
conviet
penta
banala
teatrala
expansiune
pluton
darea
last
campie
terapii
exporturile
santierul
##rodu
152
##lock
terape
transferului
montreal
dream
communic
usilor
primirii
chirtoaca
##ente
##oneta
aparatelor
haret
extragerea
infla
pilonul
panorama
temut
custo
##zio
directoare
hasdeu
trairile
ascutit
anulate
invatarii
##anarea
mixe
sirian
##oae
deschidem
doroba
profesionista
##magazin
nefumatori
##mintului
205
ecrani
141
postarile
alegand
nedume
araf
rasnov
busines
noe
sclavi
functionalitate
duratei
##dand
compromisuri
holocaustului
performance
ecosiste
##ias
pensula
##utilor
##mesc
vederi
concentrarea
alergii
ll
evz
suspendate
biodi
textil
alegatori
fluxului
sunetului
##34
localizare
board
scoateti
valiza
##tiale
influentata
explorarea
treptele
had
degu
prompt
reumat
lune
redistri
profesii
jila
declin
patrick
concentrata
condens
##minteri
odo
alexa
petrecem
supranatura
facial
stocul
tineau
##kers
lichida
comment
lego
zamfi
scandina
spectrul
taria
pascani
mobilitatea
##pos
minimi
culte
coace
umanitare
certat
garnitura
neconventi
intelepti
margin
lecturii
aliati
testelor
pcr
paguba
ticalos
disputate
aba
certe
nervii
ovidius
##cor
expusi
antreprenorii
muncitorilor
depline
reputatie
morcovi
asternut
suveni
##oney
retice
patrie
judece
festiva
oxford
demara
prestigioase
migratiei
adresele
##lag
mintit
irever
colos
selectare
distinctii
spontane
sunetele
iuliana
sistematica
patriot
contradictoriu
versiunile
##nata
chiloti
cnair
arafat
grati
preacur
##leanu
##ghezi
istvan
scarile
memorabile
voluntara
cunoscand
minuti
inventie
##borand
epurare
sutele
##vist
oly
rostog
bucegi
intimitatea
fumul
paunescu
batuta
summ
decurge
##oizi
motivata
nerambursabila
mentalitate
amplifica
apoge
coo
##ocar
compun
sexi
transportata
nemuri
ambitios
mamaliga
spalati
##matul
allview
deran
subdi
prein
imbunatatirii
einstein
##inom
clauza
simonei
hidroelectrica
pierdeti
bert
evalueaza
interpreti
bolsev
termenilor
##io
confruntam
provocatoare
interdictia
##deam
garantata
##viinta
oil
pescar
decolte
tanc
plagiat
estica
recrut
indicatorul
spitalelor
ofiterul
blow
unghiul
asezari
observi
planificat
croit
fantezie
distreaza
majest
##liera
natala
##itilor
reunite
##eac
glum
piramida
bivol
holding
demne
validare
amanata
tentat
##semnific
monedei
##ody
##otele
lew
formand
neobisnuite
laca
incepu
marimi
emisiunile
prod
##bela
umbrele
ingreun
colaboratorii
ezitati
trafica
##pentru
pasiuni
moli
##pilor
discriminarii
traiect
alimenteaza
cruda
##orteze
leonard
maternitate
arda
editarea
scaunului
adaos
capodopera
fenomenele
grijile
franz
rosiile
locotenent
eut
207
biling
##vir
statiunile
##oire
fried
consumati
genuri
impost
inovative
cultului
caldurii
walter
premergatoare
alcoole
sintetic
acreditat
portocala
gandita
alocati
covarsit
indreptata
basarabeni
timbru
eviti
semnificatii
studentesc
marunti
segmente
##feta
vast
impermea
atmosferica
##rof
promovam
##otra
avizat
exercite
opuse
estimate
prosperitate
carl
hosp
frisca
privitor
tipi
conducand
antrenamentul
##hes
provocarilor
neutru
dain
castigand
cognitive
talentat
cosmic
pani
dansii
1600
reamintesc
girat
combata
francois
sighetu
scurtmetra
consumam
juramantul
##ctat
gustoasa
andronescu
##inda
executive
mosul
##odora
dumnezeule
nelam
programarea
vaccinare
horati
cozi
purtau
cutitul
budd
pes
##itte
liberala
venitului
iubea
masurat
incurajati
pestici
multitudinea
subsemn
rusinea
1932
ambitia
fb
miine
largul
potentiali
inspaimant
iepura
branze
tragem
tehnician
1907
incapacitatea
subventi
avusese
dead
portrete
curve
procesate
vacantele
importul
ovul
discursuri
gunoiul
desparte
grasimile
fundatii
tabela
ninsori
##cee
learning
iun
nero
afori
impletit
tony
generator
lucrator
scott
##ciului
bach
bunicilor
desenul
substantiale
emilian
garros
seva
certificarea
economisi
calcula
sovietici
##omo
hidrateaza
skype
danu
##matici
contabili
##chin
predominant
capsuni
marco
parasesc
africii
corporation
contraindic
doctorului
sob
micilor
cuba
tabl
coap
atletic
wimble
leonardo
apetitul
vieru
acreditare
rux
ascundeti
cumparaturile
aviatie
reclamat
munt
him
presedintie
article
reducand
##andru
spiru
adevaratele
ear
satmare
inconstienta
stancu
alma
imaginez
cutite
apelului
instructor
nebuni
cristale
##heimer
atei
chile
inteligentei
##denie
cautarile
nationalitate
invatatorul
spectatorilor
imprejm
vatamare
wine
costine
zeelanda
##kara
serge
narat
sesizati
creativitatii
zgar
##rong
##iliere
bijuteriile
destabili
arsenal
autovehiculului
rindul
saltele
cex
desfiintat
responsabilitatii
conserve
scotia
infractori
prinderea
inventii
erorile
corporati
stirilor
carma
rusilor
bulgara
aruncam
##vier
pozitionat
##test
ocoli
##narii
occidentul
salariatului
adversari
##strial
misionar
imaginatiei
sfere
assi
strapun
circule
aniversar
nesemnific
basti
culcat
felicitat
revendic
interfere
terapeutica
##onistii
skin
4g
episcopului
inovatii
sudica
uleiului
infectiile
##uru
ratb
calcar
senzational
dezamagire
restaurantele
economiile
jiha
obisnui
apostolii
crestea
motiva
jucati
rezist
dezastrul
relaxarea
imputernici
incip
palace
portar
introducerii
##vezi
##rson
nicolaescu
##fl
regionali
tradusa
promotia
azot
entertainment
rectificare
##atlon
lidia
aragaz
solicitantul
stur
copyright
fume
natiunile
orienta
groaznic
analytics
cnn
##ulele
coj
fero
teoriile
pha
complica
##chan
delegatii
despartire
cehos
##iac
seaca
zeii
##þii
pantalonii
rise
cancela
pregatesti
returul
invidiat
socotit
raja
unghiilor
aditionale
wc
##ssa
fois
originile
preferati
1926
abur
##pera
continute
televizoare
pretext
strabatut
generatiilor
observate
suferintei
cinematografiei
gestioneze
##ии
obositi
##aliei
productivitatea
tulburarile
suspendarii
negoita
penisului
serena
milan
supuna
agresiune
family
suprain
chilia
ingrozitor
vicepremierul
enel
profesionistilor
fiice
bah
convingeri
epistola
ordon
scedil
adversarul
lantului
iara
tinutele
limbilor
verdic
priveliste
prostata
pretentiile
cehoslova
lipeala
dioxi
autoare
localizarea
obtinere
inchirieri
tichete
entitatile
incurajam
audiovizualului
incord
orientale
abtin
jane
aceast
dividende
isaac
tipare
arunc
scriind
raporturilor
hepatice
vize
altminteri
preventie
comunelor
gno
sinucis
##usurile
metabolice
aratau
cosmetica
##ded
lipeli
titus
inocenta
provenit
bike
civilizatii
nita
mitropolia
laptopul
aranjat
vart
conluc
putinii
uscare
imbatran
regenerarea
##catorii
untold
vreunei
plamani
miscat
ceaiuri
florida
bucurandu
restranse
salubrizare
°c
rebel
cires
pantof
self
wimbledon
traire
profitului
setea
lupul
marinei
inaltul
frigori
ntr
prosop
phe
nadaj
inflatia
swi
nemtii
##kins
greutatile
mesajelor
vecinul
##forta
protejati
aeroporturi
prelimin
adiacente
permiteti
observatiile
##rne
vamp
echipata
mentionati
inegal
trimiti
necont
intampl
principele
##ulus
engine
tool
nominal
raiul
##uleni
psihoterapie
nobila
implicarii
iq
victori
regulamentar
continuitatea
cotele
hotarirea
voluntarilor
paji
propuna
stramb
prelucra
patimilor
##struct
dispece
inzestrat
##го
caritate
defun
mexican
termop
rezulte
vazandu
virusului
estival
##olarii
patimile
reactiona
espre
dirigi
850
degradare
gluten
noica
tuni
christos
distribuitor
neobisnuita
##ruit
muntean
nucleul
deteriorat
arade
toyota
##lavia
vacare
chiuve
kilogram
nefericit
##oru
ted
mik
discul
magnetic
little
##hop
nemaipo
cresti
nereus
##leroza
208
felurile
microfon
sfintirea
morminte
pelerin
buri
danseaza
mihnea
elaborata
duri
revelatie
fate
controversate
radicale
dark
gresie
incercau
semaf
disfun
reflectie
muscat
##vania
proveniti
166
micutii
gandite
desemneaza
guardian
latino
summitul
platformele
##nting
concurent
##jeaza
pavilionul
nex
intamplarea
dima
juan
medicinei
telefoanelor
zori
rezervor
evreiasca
multifunctional
selectionerul
carolina
analistii
##xie
##wich
invidie
##osan
christop
cucereasca
poeziile
divortul
indisponi
lina
obisnuiesc
obosita
ridurilor
interactiva
dobanzile
nefavorabile
##uoasa
cirese
##utu
gandea
transfu
adolescentilor
##ficatoare
realizand
jumate
sfatuiesc
lumanare
pornografice
inaintata
bucuresteni
invatamint
1910
auziti
japoniei
cultivate
tocat
fermoar
##unta
cher
articulare
diacrit
ingadui
confisca
alimentat
formatiunii
##osfera
banul
luase
criticile
portiunea
pastelui
timpurilor
tinctura
bunastare
celebri
cucerirea
inchisorii
salvate
miscarilor
spectru
organizatorice
inadec
conchis
compli
##stiinta
monitoriza
scalp
uleiurile
viscol
fiilor
duceti
ipostaze
##fy
vechilor
transe
intervalului
feli
inginerul
gimnazial
tunel
fox
timi
incest
caracal
citiva
derapa
argila
ministere
##zona
economis
domnitorului
figurat
comitet
matematic
vizitele
ramasese
horoscopul
pardo
microscop
masculine
casc
dragii
cutremurul
refugiat
servere
electoratul
stearga
consemneaza
furnizati
rafturile
##bure
##manul
pedo
judecatoresc
invatatoare
incursiune
magdale
initiativele
##oalele
timpurii
##jesti
emblema
coar
varstnici
ciub
##rative
slim
indelet
alesilor
trairea
iona
petele
templului
##rmo
calculele
##ntindu
slujirea
who
incompetenta
inscrierii
ecou
migratia
bomboane
restabilirea
##venie
incorect
pigment
ramanea
virginia
##onatilor
sentimentelor
neamurile
fenomenelor
decesului
##uto
##zed
##zisti
comedia
tradat
efectuati
anuntam
inh
activele
bega
gestiunea
miraculos
activati
pronuntarea
fulge
##untru
desertul
extrava
oftalm
inspectiei
##rag
licentei
oligarh
vroiam
clocotita
accesate
outlook
ppe
transportati
unicat
fluctu
urbanistic
zambind
elicopterul
creaturi
vocale
oceanului
hormonale
pretioasa
spele
gref
pane
antim
dinafara
certificatelor
mozart
radioa
suspectat
portelan
oul
add
monetare
semnalele
felie
fotoliu
ingrijorarea
urmaresti
prejudecati
1931
regizori
adept
antrenamentele
stone
discutiei
colectiei
grecesc
sno
invarte
gres
postmoder
track
##imare
jucand
superficial
##dero
pue
primarilor
rezervatia
palmares
pascu
sanctu
sued
truc
candu
neglija
##dating
cusut
manolescu
##war
cuprinzatoare
seb
contribuabili
macarie
diplomat
aminoacizi
filologie
analist
##play
semine
embri
confiscat
visez
controversat
casatorita
vitalie
distractii
chinuie
emilia
tanti
misa
veacului
##laj
estimarile
solutiei
bolo
echitabil
lata
##gr
gafa
microunde
pauze
acreditate
pascal
drumetii
saselea
gua
iesiri
consorti
arbitra
progresului
ragaz
paginilor
proroc
matca
right
camuf
imbunatatesc
here
veacul
asasinat
poliester
##hod
plantat
##sindu
datand
documentarul
strangerea
aha
constau
sublinia
tuc
##kon
loveasca
rebre
trateze
##fierea
supranumit
amane
dispers
morar
polita
##ristii
literal
sugera
principesa
americanilor
renasterea
rasti
neof
germanii
poemul
tomi
xl
perle
botezului
sufleteste
enig
colege
virtute
neobserv
##jr
##ovia
cununa
implementeaza
iubitorilor
##ал
firesti
inhibit
canepa
justificate
documentat
rautate
antibacte
homeop
evlavie
##pete
238
##rista
parinteasca
1859
rebeli
lampi
predate
sceptici
##oglo
vizionarea
corectarea
impunere
rene
##etei
atingeti
retinuta
afectiunea
barajul
naibii
reformele
iadul
intelepciunii
rezonabila
##yd
avantajos
incurca
prefecturii
caritabil
businessmagazin
slujbele
deont
rucsa
flue
cotidianului
telespectatori
auzul
ilan
urmam
##chiu
obstru
##pot
flexibile
numero
##vide
1913
vazusem
arhive
auditi
reexa
manifestarii
succesiune
lamb
urne
##hs
statuie
constructiv
bunatati
scorpion
straniu
vietnam
304
conservatoare
farca
lord
impaduri
fericitul
##getu
level
evreiesc
recipient
tumult
pharma
cursei
ridicol
variat
mobiliare
ungue
hotarata
invinga
##mpet
rangul
cosbuc
vizionat
competitional
ruperea
roca
mirat
sufragerie
porturi
##orum
alimentatiei
scrisului
megapi
##micii
rezultatului
ucraineni
cautarii
deutsche
prev
transpune
memorii
validat
api
##ronie
turnuri
circuite
baietilor
generozitate
asigurandu
arhitectural
fabricata
subdivizi
distrat
ceah
cristiano
eloc
csat
calatoreasca
deplasari
paradigma
achizitiei
predeal
precizeze
rever
##mitata
comisari
continente
cavaler
fidelitate
hotelier
stema
stela
coldea
lamp
istoricii
genial
inmanat
##arbonat
numitele
rapit
intimata
nemo
redactiei
banne
initia
virusi
tulburarea
##vius
inceteze
##garul
##sesi
pustii
modeste
alpha
##ghan
baiatului
dd
opoza
fee
arama
loturi
lavin
bariere
autovehiculele
##him
nb
construct
cardiaca
pediatrie
trade
avioanele
blocare
neintemei
placile
respinse
catar
intruchi
lenovo
dansat
analizata
investigat
canadian
amuzanta
revolutionare
nisipul
bolog
filtrul
##spc
fantasy
familiala
any
hotelurile
aviatiei
igieni
deveniti
pomul
##ingo
##poziti
documentara
editoriale
separare
anastasia
fati
franare
oltului
adresati
afin
hain
aviv
interlocut
culmina
plasati
bub
##tiv
turului
tripla
cancelarul
##aneze
fotoliul
mentiuni
urmezi
incadrate
boeing
berg
convingerile
margele
pomana
rupta
avizare
regenerare
cci
temerile
valcov
propagandi
pn
sustinator
bush
raceasca
ironie
fotograful
antis
salarial
islami
suspecte
categoriilor
engleze
ovaz
bagi
abatere
revarsa
esentiali
casatoreasca
dracula
##haga
##online
aeronaut
vindece
suediei
ordinele
adje
dragon
livrarile
##steanu
dildo
judetelor
mitra
acri
cuib
horatiu
festiv
extractul
perceputa
##hale
exportul
extensie
brigazii
alocata
instinct
scula
mahala
oe
posibilitatilor
provocand
umanitatea
omb
##fte
teolog
rasuna
preferintelor
legalitatea
crimele
implicatii
scapam
dreptei
invatatori
inovarii
vizibilitatea
dn1
explodat
amenintarile
fise
tipului
zambesc
vizitare
absoarbe
##olta
percepute
asistentul
disperarea
nelamuri
vestica
polari
jurnalistului
##rmi
ortodoxie
domnitorul
legendele
##mandu
televizorului
particularitatile
treceau
dragus
silit
cafelei
simplitate
2500
computeri
filozofia
jungla
##ziana
rasuf
karate
cuviinta
biblica
conot
calificate
diminuat
ascutite
decorate
pretentia
smerenia
parbri
nascu
izolata
salub
preliminar
nin
rebreanu
##psi
##ffei
##kar
paria
accidenta
gloa
excesive
##veco
sporeste
##pozit
alz
##scute
rach
uscator
showroom
oprisan
boia
gradinile
##cios
##mens
definitii
gustare
intrebata
suedeza
vez
gazul
marturisire
151
lipsea
cartierele
oltchim
sexdating
marcile
locas
simbata
competitivitatii
sucursala
py
afise
##diaza
coborare
deserv
dsp
ose
calib
fauna
bizar
stabilitatii
ciuperca
destinatiile
anotimpul
icoanei
clasificare
pint
panourile
neex
tractor
##sapp
absolvirea
fuc
necli
injur
creatori
bej
##mac
pode
gagau
certitudinea
sasi
nisp
##onism
##matizare
wur
galile
estomp
rucsac
philip
##sfa
oficiata
prodan
locuiau
dragh
rezervata
titei
##nko
##ри
infatisare
mogos
profitand
clasificarea
720
transpla
ritualul
clasici
aurora
##iii
instituie
solicitand
davis
difuzarea
populatii
temeri
ceramice
##zor
zel
dinauntru
inflorit
[...]
